// Auto-generated — 2026-04-21T20:12:16.359658
// Classes: ['BAD', 'CALL', 'GOOD', 'HELLO', 'LOVE', 'MILK']
// Accuracy: 100.0%

const unsigned int gesture_model_len = 32204;
const unsigned char gesture_model[] = {
  0x1c, 0x00, 0x00, 0x00, 0x54, 0x46, 0x4c, 0x33, 0x14, 0x00, 0x20, 0x00, 
  0x1c, 0x00, 0x18, 0x00, 0x14, 0x00, 0x10, 0x00, 0x0c, 0x00, 0x00, 0x00, 
  0x08, 0x00, 0x04, 0x00, 0x14, 0x00, 0x00, 0x00, 0x1c, 0x00, 0x00, 0x00, 
  0x98, 0x00, 0x00, 0x00, 0x20, 0x01, 0x00, 0x00, 0x10, 0x6c, 0x00, 0x00, 
  0x20, 0x6c, 0x00, 0x00, 0x48, 0x7d, 0x00, 0x00, 0x03, 0x00, 0x00, 0x00, 
  0x01, 0x00, 0x00, 0x00, 0x10, 0x00, 0x00, 0x00, 0x00, 0x00, 0x0a, 0x00, 
  0x10, 0x00, 0x0c, 0x00, 0x08, 0x00, 0x04, 0x00, 0x0a, 0x00, 0x00, 0x00, 
  0x0c, 0x00, 0x00, 0x00, 0x1c, 0x00, 0x00, 0x00, 0x3c, 0x00, 0x00, 0x00, 
  0x0f, 0x00, 0x00, 0x00, 0x73, 0x65, 0x72, 0x76, 0x69, 0x6e, 0x67, 0x5f, 
  0x64, 0x65, 0x66, 0x61, 0x75, 0x6c, 0x74, 0x00, 0x01, 0x00, 0x00, 0x00, 
  0x04, 0x00, 0x00, 0x00, 0x60, 0xff, 0xff, 0xff, 0x15, 0x00, 0x00, 0x00, 
  0x04, 0x00, 0x00, 0x00, 0x08, 0x00, 0x00, 0x00, 0x6f, 0x75, 0x74, 0x70, 
  0x75, 0x74, 0x5f, 0x30, 0x00, 0x00, 0x00, 0x00, 0x01, 0x00, 0x00, 0x00, 
  0x04, 0x00, 0x00, 0x00, 0xc2, 0x93, 0xff, 0xff, 0x04, 0x00, 0x00, 0x00, 
  0x0c, 0x00, 0x00, 0x00, 0x6b, 0x65, 0x72, 0x61, 0x73, 0x5f, 0x74, 0x65, 
  0x6e, 0x73, 0x6f, 0x72, 0x00, 0x00, 0x00, 0x00, 0x03, 0x00, 0x00, 0x00, 
  0x64, 0x00, 0x00, 0x00, 0x2c, 0x00, 0x00, 0x00, 0x04, 0x00, 0x00, 0x00, 
  0xb0, 0xff, 0xff, 0xff, 0x19, 0x00, 0x00, 0x00, 0x04, 0x00, 0x00, 0x00, 
  0x13, 0x00, 0x00, 0x00, 0x43, 0x4f, 0x4e, 0x56, 0x45, 0x52, 0x53, 0x49, 
  0x4f, 0x4e, 0x5f, 0x4d, 0x45, 0x54, 0x41, 0x44, 0x41, 0x54, 0x41, 0x00, 
  0xd4, 0xff, 0xff, 0xff, 0x18, 0x00, 0x00, 0x00, 0x04, 0x00, 0x00, 0x00, 
  0x19, 0x00, 0x00, 0x00, 0x72, 0x65, 0x64, 0x75, 0x63, 0x65, 0x64, 0x5f, 
  0x70, 0x72, 0x65, 0x63, 0x69, 0x73, 0x69, 0x6f, 0x6e, 0x5f, 0x73, 0x75, 
  0x70, 0x70, 0x6f, 0x72, 0x74, 0x00, 0x00, 0x00, 0x08, 0x00, 0x0c, 0x00, 
  0x08, 0x00, 0x04, 0x00, 0x08, 0x00, 0x00, 0x00, 0x17, 0x00, 0x00, 0x00, 
  0x04, 0x00, 0x00, 0x00, 0x13, 0x00, 0x00, 0x00, 0x6d, 0x69, 0x6e, 0x5f, 
  0x72, 0x75, 0x6e, 0x74, 0x69, 0x6d, 0x65, 0x5f, 0x76, 0x65, 0x72, 0x73, 
  0x69, 0x6f, 0x6e, 0x00, 0x1a, 0x00, 0x00, 0x00, 0xec, 0x6a, 0x00, 0x00, 
  0xe4, 0x6a, 0x00, 0x00, 0xd4, 0x69, 0x00, 0x00, 0xc4, 0x53, 0x00, 0x00, 
  0xa8, 0x53, 0x00, 0x00, 0x18, 0x52, 0x00, 0x00, 0x88, 0x51, 0x00, 0x00, 
  0x78, 0x11, 0x00, 0x00, 0x28, 0x11, 0x00, 0x00, 0x18, 0x01, 0x00, 0x00, 
  0x10, 0x01, 0x00, 0x00, 0x08, 0x01, 0x00, 0x00, 0x00, 0x01, 0x00, 0x00, 
  0xf8, 0x00, 0x00, 0x00, 0xf0, 0x00, 0x00, 0x00, 0xe8, 0x00, 0x00, 0x00, 
  0xe0, 0x00, 0x00, 0x00, 0xd8, 0x00, 0x00, 0x00, 0xd0, 0x00, 0x00, 0x00, 
  0xc8, 0x00, 0x00, 0x00, 0xc0, 0x00, 0x00, 0x00, 0xb8, 0x00, 0x00, 0x00, 
  0xb0, 0x00, 0x00, 0x00, 0x90, 0x00, 0x00, 0x00, 0x74, 0x00, 0x00, 0x00, 
  0x04, 0x00, 0x00, 0x00, 0xd6, 0x94, 0xff, 0xff, 0x04, 0x00, 0x00, 0x00, 
  0x60, 0x00, 0x00, 0x00, 0x0c, 0x00, 0x00, 0x00, 0x08, 0x00, 0x0e, 0x00, 
  0x08, 0x00, 0x04, 0x00, 0x08, 0x00, 0x00, 0x00, 0x10, 0x00, 0x00, 0x00, 
  0x28, 0x00, 0x00, 0x00, 0x00, 0x00, 0x06, 0x00, 0x08, 0x00, 0x04, 0x00, 
  0x06, 0x00, 0x00, 0x00, 0x04, 0x00, 0x00, 0x00, 0x01, 0x00, 0x00, 0x00, 
  0xe9, 0x03, 0x00, 0x00, 0x0c, 0x00, 0x18, 0x00, 0x14, 0x00, 0x10, 0x00, 
  0x0c, 0x00, 0x04, 0x00, 0x0c, 0x00, 0x00, 0x00, 0x24, 0x37, 0xd4, 0x90, 
  0xa2, 0xb3, 0xab, 0xc2, 0x02, 0x00, 0x00, 0x00, 0x02, 0x00, 0x00, 0x00, 
  0x04, 0x00, 0x00, 0x00, 0x06, 0x00, 0x00, 0x00, 0x32, 0x2e, 0x32, 0x31, 
  0x2e, 0x30, 0x00, 0x00, 0x42, 0x95, 0xff, 0xff, 0x04, 0x00, 0x00, 0x00, 
  0x0b, 0x00, 0x00, 0x00, 0x66, 0x70, 0x31, 0x36, 0x61, 0x63, 0x63, 0x66, 
  0x70, 0x33, 0x32, 0x00, 0x5a, 0x95, 0xff, 0xff, 0x04, 0x00, 0x00, 0x00, 
  0x10, 0x00, 0x00, 0x00, 0x31, 0x2e, 0x31, 0x35, 0x2e, 0x30, 0x00, 0x00, 
  0x00, 0x00, 0x00, 0x00, 0x00, 0x00, 0x00, 0x00, 0x10, 0x85, 0xff, 0xff, 
  0x14, 0x85, 0xff, 0xff, 0x18, 0x85, 0xff, 0xff, 0x1c, 0x85, 0xff, 0xff, 
  0x20, 0x85, 0xff, 0xff, 0x24, 0x85, 0xff, 0xff, 0x28, 0x85, 0xff, 0xff, 
  0x2c, 0x85, 0xff, 0xff, 0x30, 0x85, 0xff, 0xff, 0x34, 0x85, 0xff, 0xff, 
  0x38, 0x85, 0xff, 0xff, 0x3c, 0x85, 0xff, 0xff, 0x40, 0x85, 0xff, 0xff, 
  0xaa, 0x95, 0xff, 0xff, 0x04, 0x00, 0x00, 0x00, 0x00, 0x10, 0x00, 0x00, 
  0x85, 0x22, 0x7d, 0x30, 0x3b, 0x2c, 0x21, 0x2d, 0x2d, 0xa2, 0xf1, 0x2f, 
  0x9d, 0xb2, 0x9a, 0x29, 0x9c, 0xad, 0x5c, 0x32, 0x79, 0x2c, 0xa2, 0x32, 
  0xa6, 0xb1, 0x9d, 0x2a, 0xac, 0x27, 0xb1, 0x30, 0x43, 0x33, 0x60, 0x31, 
  0xe0, 0x2c, 0x0d, 0xa4, 0xe1, 0x9a, 0x11, 0x31, 0xec, 0x32, 0x0d, 0x29, 
  0x6b, 0xb2, 0x0a, 0xb0, 0x7d, 0xa4, 0x0a, 0xa0, 0x0d, 0x9f, 0xe1, 0x2f, 
  0xb7, 0xb1, 0x3a, 0xae, 0xb0, 0x2d, 0x6d, 0x32, 0x23, 0x33, 0x9e, 0xb3, 
  0x54, 0x33, 0x66, 0xa6, 0x4a, 0xad, 0xfb, 0xb0, 0x02, 0xb3, 0x90, 0x2b, 
  0xe5, 0xb3, 0xf3, 0xaa, 0x80, 0x2e, 0xcd, 0xad, 0x92, 0xaa, 0x6e, 0xb4, 
  0x27, 0xb0, 0x74, 0xac, 0x47, 0x30, 0xe5, 0xb2, 0xb6, 0x28, 0x77, 0xb1, 
  0x62, 0xb4, 0x7b, 0x2e, 0x89, 0xae, 0x0c, 0xaf, 0x13, 0x29, 0x71, 0x2b, 
  0x5c, 0x2d, 0xe7, 0x9e, 0x8d, 0xa8, 0x45, 0xb0, 0x51, 0xa1, 0xae, 0xb3, 
  0x5a, 0xb3, 0x7d, 0x33, 0x0c, 0xad, 0x2f, 0xb4, 0xfa, 0x2f, 0x1f, 0xad, 
  0xdd, 0xb2, 0x5d, 0xa7, 0x4b, 0x2e, 0xd4, 0x2c, 0xee, 0xb3, 0xa1, 0xb3, 
  0x39, 0xa6, 0xc0, 0x2f, 0x1d, 0x32, 0x3b, 0xa9, 0x83, 0x26, 0x43, 0x2f, 
  0x81, 0x2f, 0x79, 0xb2, 0x24, 0x22, 0xfb, 0xaf, 0x10, 0x32, 0x2e, 0xb1, 
  0x5d, 0xb1, 0x5d, 0x33, 0xc5, 0x2a, 0x2b, 0x30, 0x55, 0x30, 0x94, 0xad, 
  0xe8, 0xae, 0x4d, 0x30, 0x8b, 0xaa, 0x20, 0x2f, 0x5b, 0x30, 0x53, 0x31, 
  0x93, 0xaa, 0x7e, 0x2b, 0x1c, 0xad, 0x7d, 0xa8, 0xe5, 0xa8, 0xd7, 0x2f, 
  0x58, 0xa5, 0x69, 0x27, 0x7a, 0x32, 0x10, 0x31, 0x24, 0x9c, 0xb3, 0xa6, 
  0x08, 0xb3, 0x6b, 0xac, 0x27, 0x31, 0x16, 0xaf, 0x64, 0xae, 0x3f, 0xb0, 
  0xeb, 0x2f, 0xbb, 0xb1, 0x82, 0x24, 0x98, 0xa9, 0x62, 0xb0, 0x69, 0xb0, 
  0x38, 0xa5, 0x66, 0xaf, 0x84, 0xad, 0x7a, 0x2d, 0x75, 0xab, 0xb9, 0xaa, 
  0x94, 0x2e, 0xf8, 0xa9, 0x20, 0xa8, 0x05, 0x30, 0x0d, 0xa9, 0xf8, 0x2b, 
  0x25, 0x2c, 0x3c, 0xae, 0x2a, 0x1e, 0x1d, 0x35, 0x4a, 0x26, 0x39, 0x21, 
  0xf2, 0xad, 0x9d, 0x31, 0xb2, 0x2d, 0xdf, 0xb0, 0x51, 0xb2, 0x7c, 0xae, 
  0x50, 0xa1, 0x16, 0xae, 0x80, 0x29, 0x65, 0x24, 0xa9, 0xae, 0xa0, 0xb1, 
  0x13, 0x27, 0xa6, 0xaf, 0x06, 0xb2, 0x20, 0xb0, 0x62, 0xb4, 0x9d, 0xac, 
  0x09, 0xad, 0xcb, 0xad, 0x30, 0x25, 0xc7, 0x2d, 0x20, 0xa9, 0xce, 0x9e, 
  0xee, 0x30, 0x05, 0xb0, 0xa8, 0x31, 0x06, 0xb0, 0x7d, 0x2f, 0xd9, 0x2b, 
  0xbf, 0x32, 0x43, 0x2c, 0x11, 0x30, 0x1c, 0x2f, 0x8b, 0x27, 0x84, 0x33, 
  0x7d, 0xab, 0x01, 0x32, 0x42, 0x32, 0x1a, 0xa4, 0xcf, 0x28, 0x92, 0x31, 
  0x4e, 0xb0, 0x2a, 0xb2, 0xc5, 0x2e, 0xb8, 0x31, 0xa5, 0x2e, 0x8a, 0x26, 
  0xcd, 0xaf, 0x0b, 0x26, 0x3a, 0xb2, 0x33, 0x2f, 0xea, 0x1b, 0xae, 0xac, 
  0x9c, 0x30, 0x1c, 0xab, 0x67, 0x28, 0xc7, 0x28, 0x5f, 0xb1, 0x1b, 0xb4, 
  0xc4, 0xaf, 0x4f, 0xb1, 0x5c, 0x23, 0xd2, 0xac, 0x83, 0x31, 0xa4, 0x30, 
  0xe1, 0x2e, 0x69, 0xab, 0x97, 0x2e, 0x62, 0x31, 0x4a, 0xad, 0xd2, 0xaa, 
  0x4a, 0x97, 0x62, 0x2c, 0xa5, 0xb2, 0xd5, 0x31, 0x2b, 0x2b, 0x4b, 0x31, 
  0x58, 0xb1, 0x77, 0xb2, 0xa9, 0x31, 0x46, 0xb3, 0xd7, 0x31, 0x7a, 0x2e, 
  0x4a, 0x1e, 0x04, 0x2f, 0x30, 0x2c, 0xf5, 0x30, 0x71, 0xad, 0xf8, 0x24, 
  0xd2, 0x2e, 0xd4, 0x2f, 0x3c, 0xb0, 0x14, 0xaf, 0x67, 0xae, 0x9d, 0xb0, 
  0xc6, 0xb0, 0x8e, 0x31, 0x93, 0xa6, 0x55, 0xb3, 0x7d, 0x18, 0x18, 0x32, 
  0x67, 0xaa, 0xb4, 0x30, 0x8f, 0x29, 0xc0, 0x2b, 0x3b, 0x31, 0xfd, 0xa9, 
  0x45, 0xb2, 0x82, 0x32, 0xb8, 0x31, 0x9c, 0x31, 0x5d, 0x32, 0x53, 0x33, 
  0x9e, 0x2f, 0x57, 0x29, 0xe2, 0xb2, 0xf2, 0x30, 0xb8, 0xac, 0x7a, 0xae, 
  0xac, 0xad, 0x56, 0x2e, 0xe6, 0x28, 0xb4, 0x30, 0x1f, 0xab, 0xcb, 0xb2, 
  0x1b, 0xb1, 0x84, 0xae, 0xcd, 0x2d, 0x0e, 0x32, 0x03, 0x24, 0x42, 0xab, 
  0xfc, 0x30, 0x00, 0xb3, 0xed, 0xae, 0x11, 0xb0, 0xab, 0x2f, 0xb5, 0xac, 
  0xdf, 0x2e, 0x08, 0xaf, 0x3a, 0xa8, 0x1e, 0x21, 0x16, 0xb1, 0x82, 0x29, 
  0xdf, 0xad, 0x76, 0xb0, 0xd8, 0xac, 0x0c, 0xb0, 0xea, 0x32, 0x10, 0xb0, 
  0xb2, 0x2c, 0x40, 0xb0, 0x76, 0xae, 0x01, 0x2c, 0x76, 0x28, 0x4e, 0xb0, 
  0xa0, 0xb2, 0x4f, 0xb1, 0x4f, 0xb3, 0x70, 0xab, 0x6e, 0xb2, 0x19, 0x2e, 
  0xc2, 0x31, 0xb1, 0x33, 0x3b, 0x9d, 0x9b, 0x29, 0xbc, 0xb1, 0x92, 0x1f, 
  0x4c, 0xb0, 0x51, 0xaa, 0xbf, 0x1d, 0x27, 0xac, 0x35, 0x2a, 0xaa, 0xb0, 
  0xa4, 0x30, 0x65, 0x30, 0xf7, 0x2f, 0xb5, 0xaf, 0xae, 0x30, 0xa5, 0x28, 
  0x75, 0xb2, 0xec, 0x2d, 0xce, 0x26, 0xf0, 0xb0, 0xc3, 0x2e, 0x94, 0x2c, 
  0x0a, 0xae, 0x44, 0x2d, 0x4b, 0xa2, 0x1a, 0x34, 0xf6, 0x28, 0x39, 0xb4, 
  0x5c, 0x33, 0xd7, 0xa6, 0x60, 0xab, 0x2f, 0x29, 0xf9, 0xac, 0x52, 0x2c, 
  0x19, 0x30, 0x7a, 0x2b, 0xd0, 0x23, 0x88, 0x33, 0x35, 0x30, 0x81, 0xae, 
  0xb9, 0xb3, 0x22, 0xb3, 0xbd, 0xb3, 0x85, 0x29, 0x31, 0x30, 0x91, 0x31, 
  0x75, 0x2c, 0xaf, 0x32, 0x68, 0x31, 0xef, 0x2d, 0x7a, 0xaf, 0xf3, 0xad, 
  0x8f, 0xae, 0x7b, 0xac, 0x92, 0x21, 0xee, 0xa9, 0x8c, 0x2f, 0xcf, 0x26, 
  0x2f, 0xaf, 0xaf, 0xae, 0xb4, 0x2a, 0x4d, 0xb2, 0xff, 0xaa, 0x16, 0xab, 
  0xe7, 0xad, 0x12, 0x2f, 0x77, 0x29, 0x14, 0xb4, 0x69, 0xad, 0x8e, 0xb2, 
  0x65, 0xb0, 0x1c, 0x30, 0xa8, 0xb3, 0x9d, 0x24, 0x18, 0x2d, 0x3d, 0x2c, 
  0xcc, 0x2f, 0xfa, 0x32, 0x31, 0x29, 0x36, 0xb3, 0x6f, 0xb1, 0xd8, 0x32, 
  0x8e, 0x32, 0xa9, 0xad, 0x3c, 0x30, 0xa7, 0x31, 0xd8, 0xb1, 0xc9, 0x2d, 
  0x93, 0x20, 0x5d, 0x2d, 0xb6, 0xa9, 0x7f, 0xad, 0xeb, 0x1c, 0x33, 0xa9, 
  0x68, 0x9d, 0x23, 0xb0, 0xaf, 0x1c, 0x61, 0xb1, 0x3b, 0x30, 0x0f, 0x26, 
  0x00, 0xb1, 0x5b, 0xa9, 0x3e, 0xa1, 0xd3, 0xaf, 0x07, 0x9f, 0xb6, 0x2f, 
  0x27, 0xa0, 0xb2, 0x30, 0x3e, 0xb1, 0xb5, 0x2f, 0x43, 0x22, 0x0c, 0xaa, 
  0x9f, 0x2b, 0x30, 0x2c, 0x80, 0xaa, 0x25, 0x31, 0x45, 0x34, 0x5f, 0xb1, 
  0x0d, 0xb3, 0xfd, 0xad, 0x5d, 0xb0, 0xdd, 0x31, 0x13, 0xb1, 0x69, 0xad, 
  0x29, 0x2b, 0xbd, 0x2d, 0xf6, 0x2c, 0x4c, 0xad, 0x6b, 0xb1, 0x5f, 0xad, 
  0x11, 0xaf, 0xf0, 0xa4, 0xe5, 0x2c, 0x83, 0x30, 0x90, 0xa9, 0x08, 0xae, 
  0xe4, 0xab, 0xb5, 0xa4, 0x17, 0xb2, 0x7d, 0x25, 0x2e, 0x2a, 0xd4, 0x32, 
  0xb4, 0xb3, 0x06, 0x2c, 0x09, 0xb1, 0x63, 0xad, 0x57, 0xa7, 0x06, 0x2d, 
  0x9e, 0xb2, 0xe3, 0x2a, 0x43, 0x1d, 0x2c, 0xb4, 0x60, 0xa9, 0x44, 0xb0, 
  0x94, 0xae, 0x8b, 0x2a, 0x7a, 0xb3, 0x49, 0xb1, 0x05, 0x2e, 0xf0, 0x15, 
  0x8a, 0xb0, 0xb4, 0xb1, 0x91, 0x0c, 0x03, 0x29, 0x61, 0xac, 0xc7, 0xb0, 
  0x2b, 0x32, 0x0e, 0xab, 0x8d, 0x30, 0x78, 0x30, 0x76, 0x32, 0xaa, 0xb0, 
  0x37, 0xb0, 0x17, 0xb4, 0x79, 0xa5, 0x5a, 0xb0, 0x11, 0xaf, 0x36, 0x31, 
  0x29, 0x32, 0x0f, 0x32, 0x13, 0x32, 0xa1, 0xae, 0x62, 0x26, 0xb6, 0x28, 
  0x93, 0x32, 0x08, 0xb3, 0xb4, 0x30, 0xfc, 0xb1, 0x0b, 0xaf, 0xba, 0xac, 
  0xbc, 0x28, 0x04, 0xb4, 0xf4, 0x31, 0xe7, 0x2a, 0x89, 0x15, 0xb5, 0x24, 
  0xe5, 0x31, 0x76, 0xa5, 0xd8, 0x2d, 0x90, 0x23, 0x62, 0x2d, 0x10, 0x32, 
  0xbc, 0xa7, 0x6b, 0x27, 0xfa, 0x09, 0xf2, 0x2c, 0x56, 0x20, 0x70, 0xae, 
  0xcb, 0x32, 0x58, 0xa7, 0xb5, 0x32, 0x91, 0x9c, 0x8b, 0xad, 0xcf, 0xab, 
  0xd6, 0x2f, 0xf4, 0xb1, 0x95, 0x31, 0x1f, 0xae, 0xd4, 0x32, 0x53, 0x2e, 
  0x02, 0xb1, 0x5e, 0x9d, 0xbf, 0x2f, 0x0c, 0xb2, 0x1f, 0x32, 0x48, 0xaf, 
  0x5e, 0xb0, 0x8a, 0xac, 0x67, 0x29, 0x9b, 0xb0, 0x94, 0x30, 0xbe, 0xb3, 
  0x6a, 0xae, 0x6e, 0xa6, 0xce, 0xa8, 0x7f, 0x2b, 0x90, 0xa8, 0xdf, 0x8f, 
  0xa9, 0x34, 0x09, 0x2f, 0xac, 0xaf, 0xb6, 0x2e, 0x80, 0x2e, 0x8e, 0xad, 
  0x59, 0xaf, 0x0a, 0xae, 0xca, 0x22, 0xee, 0xaf, 0x03, 0x1d, 0x86, 0xb0, 
  0x87, 0xb1, 0xa6, 0x32, 0x06, 0xa9, 0x41, 0xac, 0xe4, 0x9b, 0x47, 0xb0, 
  0x57, 0xb0, 0x3d, 0x2b, 0x43, 0xae, 0x25, 0x31, 0x4a, 0x9d, 0x17, 0x2c, 
  0x63, 0xad, 0x96, 0xad, 0x4e, 0x32, 0xd0, 0xa5, 0xb1, 0x24, 0x20, 0x2c, 
  0x63, 0x31, 0xfe, 0x32, 0x0e, 0xa8, 0x97, 0xb3, 0x9e, 0x30, 0x5f, 0x33, 
  0xdf, 0x31, 0x5e, 0x2a, 0x04, 0xaf, 0xbc, 0xaf, 0x2e, 0xa4, 0xc7, 0xb0, 
  0x41, 0x33, 0x30, 0x18, 0x17, 0xaa, 0xe3, 0x11, 0x43, 0x25, 0x4d, 0x17, 
  0x94, 0x2e, 0xb0, 0x2b, 0x9e, 0xa9, 0x56, 0xac, 0xa4, 0xa8, 0x85, 0x29, 
  0xbb, 0xaf, 0xa9, 0x2e, 0x9f, 0xab, 0x9a, 0xb0, 0x7d, 0xaf, 0x63, 0x2b, 
  0x96, 0x31, 0x9b, 0x9f, 0xba, 0x30, 0x20, 0xb3, 0x53, 0xae, 0xc0, 0xa3, 
  0xc4, 0xaa, 0x62, 0xb2, 0x33, 0xae, 0x83, 0x2d, 0xff, 0x1e, 0xda, 0xb3, 
  0xd1, 0xb2, 0x0d, 0xa3, 0xc5, 0x30, 0x99, 0x32, 0xe8, 0xa4, 0x8c, 0xb2, 
  0x92, 0x33, 0x67, 0x2f, 0x8e, 0xae, 0x6e, 0x30, 0xeb, 0xa9, 0x54, 0xae, 
  0xf5, 0xb1, 0x64, 0x2d, 0xe4, 0xab, 0xa7, 0x1e, 0x5d, 0x29, 0x19, 0x30, 
  0x2a, 0xb1, 0xb1, 0x24, 0xff, 0x31, 0x8f, 0xaf, 0xa0, 0x29, 0xfb, 0xb0, 
  0x94, 0xb2, 0x3f, 0x2f, 0xde, 0x30, 0x4d, 0x33, 0x05, 0x24, 0x02, 0xac, 
  0xf7, 0xad, 0xd5, 0x32, 0x4a, 0xb0, 0xb3, 0x2b, 0x2d, 0x33, 0xad, 0x23, 
  0xb3, 0xa6, 0x05, 0x31, 0xfe, 0x32, 0x01, 0xa1, 0x7e, 0xa8, 0x82, 0xae, 
  0x67, 0xa9, 0x15, 0xae, 0xf4, 0x2d, 0x51, 0x2c, 0x7c, 0x29, 0x1f, 0xaa, 
  0x9a, 0xaa, 0x51, 0x32, 0x5e, 0x30, 0xd3, 0xac, 0xbf, 0x2f, 0x45, 0x2e, 
  0x29, 0xb0, 0x1c, 0xac, 0xd9, 0xb1, 0x0f, 0xaf, 0x38, 0xac, 0xe6, 0xa8, 
  0xb5, 0x30, 0xf5, 0x24, 0xc3, 0x29, 0x10, 0xaa, 0x91, 0xb0, 0x0f, 0xb0, 
  0x68, 0xab, 0x54, 0x34, 0x40, 0xae, 0x11, 0xb0, 0xf6, 0xa8, 0x44, 0x8c, 
  0xe4, 0x21, 0x8b, 0x31, 0xa2, 0x2b, 0x4b, 0x2d, 0x15, 0xae, 0x97, 0xa9, 
  0x60, 0x24, 0xd6, 0x2e, 0x47, 0xb2, 0xaf, 0xa5, 0x76, 0xa8, 0xe8, 0xae, 
  0x54, 0xb0, 0xae, 0xa8, 0xa0, 0xa7, 0x20, 0xb0, 0x5e, 0xac, 0x52, 0x2a, 
  0x2b, 0x23, 0xb6, 0xa4, 0xbd, 0xb2, 0xad, 0xa7, 0x6e, 0x33, 0x07, 0xad, 
  0x0a, 0x32, 0x46, 0xb4, 0x67, 0x28, 0x0d, 0x2b, 0xa6, 0xaa, 0x34, 0x30, 
  0x44, 0x9f, 0x4a, 0xb0, 0xca, 0xb0, 0x4c, 0x29, 0x25, 0xb0, 0x26, 0xb1, 
  0x4a, 0xa4, 0xaf, 0xa9, 0x78, 0xb1, 0x41, 0xa8, 0x4e, 0x32, 0xb0, 0x2d, 
  0x89, 0xb0, 0xec, 0x20, 0xb5, 0xb1, 0x6e, 0xb2, 0xf4, 0x2e, 0x26, 0x30, 
  0x9e, 0xb1, 0xd4, 0xae, 0x5a, 0x30, 0x64, 0x28, 0x38, 0xb1, 0x19, 0xa9, 
  0x3a, 0xab, 0x8a, 0x2e, 0x3f, 0xa8, 0xfd, 0xab, 0x28, 0x2f, 0xb3, 0x30, 
  0xb1, 0xac, 0x4b, 0x30, 0x7c, 0xb0, 0xa1, 0x2d, 0x68, 0x33, 0xea, 0x2a, 
  0x62, 0xb2, 0x7f, 0xb0, 0x9c, 0xb3, 0x4b, 0x30, 0x31, 0x30, 0xe6, 0x29, 
  0x83, 0xb0, 0x85, 0xb2, 0x38, 0x31, 0x95, 0x2f, 0x25, 0x2a, 0xca, 0x29, 
  0xc7, 0x2e, 0x8a, 0xb1, 0x48, 0xa6, 0x53, 0xb0, 0xee, 0x30, 0xb9, 0x2f, 
  0xa8, 0xae, 0xfc, 0x2f, 0x40, 0xb0, 0x2d, 0x2e, 0xb6, 0x2e, 0xef, 0x30, 
  0x1b, 0xaf, 0x83, 0x24, 0x68, 0x30, 0x04, 0xb1, 0x08, 0x2f, 0x54, 0x26, 
  0xf5, 0xb0, 0x60, 0xaf, 0xf7, 0x31, 0x36, 0xad, 0x54, 0xb4, 0xb5, 0x29, 
  0xff, 0xac, 0x6b, 0x30, 0x45, 0xb1, 0x47, 0x1d, 0xb6, 0xb1, 0x91, 0xb2, 
  0x77, 0xad, 0xb9, 0x2e, 0x5c, 0x31, 0x98, 0x2c, 0xa3, 0x30, 0xb0, 0xae, 
  0x0b, 0xb5, 0xef, 0x29, 0x99, 0xac, 0x3b, 0x2a, 0x18, 0x32, 0x85, 0xb1, 
  0x58, 0xae, 0x46, 0x2e, 0xf3, 0x25, 0x19, 0xb2, 0xce, 0xad, 0x26, 0x31, 
  0x67, 0xac, 0x80, 0xb2, 0x42, 0x2e, 0x7f, 0xb0, 0x0f, 0x2c, 0x87, 0xb1, 
  0x21, 0xb0, 0xb7, 0xb0, 0x5e, 0xad, 0x09, 0xb3, 0x9e, 0xb0, 0x93, 0x30, 
  0x90, 0x30, 0x5b, 0x2e, 0x5c, 0xb4, 0x41, 0x2e, 0xc9, 0x27, 0x9c, 0xa9, 
  0x08, 0xa7, 0x0e, 0x2e, 0x26, 0xaf, 0xba, 0xab, 0x08, 0x30, 0x7f, 0x31, 
  0x5a, 0xae, 0xc3, 0x2c, 0x94, 0x32, 0x43, 0xb0, 0x5b, 0xa5, 0xe9, 0xb2, 
  0xff, 0x2e, 0x37, 0xa8, 0x4f, 0x2e, 0xd7, 0x31, 0xab, 0x30, 0x75, 0xae, 
  0x1c, 0xb1, 0xb6, 0x30, 0x98, 0xb3, 0x90, 0xb0, 0x39, 0x9f, 0x25, 0x30, 
  0x6e, 0xb3, 0x19, 0xad, 0xf8, 0xb1, 0xae, 0x2d, 0x90, 0xa8, 0x66, 0x2d, 
  0x20, 0xac, 0x24, 0x24, 0x51, 0x27, 0xfc, 0x32, 0x84, 0x30, 0x37, 0xb3, 
  0x44, 0xb2, 0x38, 0xb1, 0x75, 0xb0, 0x44, 0xb0, 0x91, 0xb2, 0x92, 0xaa, 
  0xac, 0xb1, 0x7c, 0x31, 0xa8, 0x94, 0xe9, 0xae, 0x61, 0xb3, 0xa6, 0x29, 
  0x31, 0x30, 0x66, 0xb1, 0x10, 0xb1, 0xca, 0x30, 0x9c, 0x33, 0xad, 0x91, 
  0x18, 0xb0, 0xec, 0x2a, 0xf0, 0x2d, 0x1b, 0xa8, 0x0c, 0x34, 0xfb, 0x2c, 
  0xae, 0xad, 0x52, 0x21, 0x59, 0xb2, 0x24, 0x29, 0xf1, 0xb1, 0x75, 0x33, 
  0xa3, 0xb0, 0x3a, 0xb3, 0xb7, 0xa8, 0x80, 0xaf, 0x69, 0xad, 0xae, 0x30, 
  0x07, 0xad, 0xd5, 0x30, 0x6e, 0xa8, 0x79, 0x25, 0x3c, 0x32, 0xa0, 0x32, 
  0xf7, 0x30, 0xfc, 0x2b, 0x50, 0xae, 0xf6, 0x27, 0xc9, 0xb0, 0x9d, 0x30, 
  0x3e, 0x32, 0xbe, 0x28, 0xa0, 0xb1, 0xcf, 0x2c, 0x54, 0xab, 0xaf, 0x2c, 
  0x5e, 0x30, 0x1f, 0x2c, 0xf2, 0x31, 0x12, 0xb1, 0x72, 0x30, 0x53, 0xb3, 
  0xbf, 0x29, 0x68, 0xae, 0xf5, 0xad, 0x63, 0x2d, 0xc9, 0xab, 0x9c, 0x2e, 
  0x6f, 0xac, 0x07, 0xab, 0x07, 0x23, 0x01, 0x30, 0xe8, 0x31, 0x97, 0x2c, 
  0xf5, 0x32, 0xb8, 0x31, 0x83, 0xb2, 0xfd, 0x2e, 0xa3, 0xb0, 0xc8, 0xaf, 
  0x9b, 0x31, 0x91, 0xad, 0xee, 0x31, 0x9a, 0xb2, 0x60, 0xad, 0x07, 0xaa, 
  0x02, 0x2f, 0xb1, 0xae, 0xd8, 0x29, 0xb2, 0x31, 0x9c, 0x31, 0x38, 0xa6, 
  0x82, 0xb1, 0x2e, 0xb3, 0xce, 0xac, 0x17, 0x2e, 0x67, 0xb0, 0x67, 0xae, 
  0xa5, 0xb2, 0x78, 0x28, 0x17, 0xb1, 0xc5, 0x2c, 0x1e, 0xb4, 0xf7, 0x29, 
  0x48, 0x2e, 0xc1, 0xb2, 0x55, 0xb0, 0x10, 0xa6, 0x87, 0xa3, 0xfd, 0x22, 
  0x7f, 0x2b, 0x0f, 0x2c, 0xeb, 0xa9, 0x5e, 0xa5, 0xe4, 0x2e, 0x26, 0x29, 
  0x7f, 0x9f, 0x5f, 0x29, 0x30, 0xac, 0x1c, 0xa6, 0x1f, 0xb3, 0xa8, 0x2e, 
  0x53, 0xab, 0xf2, 0x32, 0x4a, 0xae, 0x55, 0x22, 0xf4, 0xb1, 0x47, 0x33, 
  0x93, 0xb2, 0xd0, 0xaf, 0x36, 0x2e, 0x8c, 0x2d, 0xab, 0xa5, 0x90, 0xb1, 
  0x9a, 0x31, 0xdc, 0x2e, 0xaf, 0xaa, 0x6b, 0x2f, 0x6f, 0x31, 0x8d, 0xaf, 
  0x74, 0xae, 0x8a, 0xb0, 0xc8, 0xa6, 0x1a, 0x2d, 0x98, 0xb0, 0xe9, 0x2d, 
  0x01, 0x2c, 0x4e, 0xb2, 0xae, 0x30, 0x85, 0xb1, 0x9d, 0x0f, 0x57, 0x33, 
  0x87, 0xb0, 0xb1, 0x2c, 0xe0, 0xb2, 0x6a, 0xb2, 0xac, 0xb0, 0xf3, 0xaf, 
  0x7a, 0x30, 0x52, 0xb0, 0x56, 0x24, 0x8c, 0x2d, 0x87, 0xa9, 0xff, 0x26, 
  0xfa, 0x33, 0xb4, 0xaa, 0x65, 0xb3, 0x29, 0x32, 0x4c, 0xad, 0x21, 0x33, 
  0xdf, 0x30, 0xba, 0x15, 0x03, 0x34, 0xa2, 0xac, 0x54, 0xae, 0xfa, 0x2e, 
  0x95, 0xae, 0xde, 0x29, 0x3e, 0xac, 0x0d, 0x21, 0x66, 0xb0, 0x5c, 0xa4, 
  0x11, 0xa0, 0xcb, 0x2d, 0x39, 0x31, 0x57, 0xb0, 0xd3, 0x30, 0x7f, 0xa5, 
  0xf3, 0x30, 0xa6, 0x30, 0x48, 0x2e, 0x04, 0xac, 0xc2, 0x2e, 0xdb, 0x2d, 
  0x55, 0xb3, 0x9c, 0xb0, 0xc0, 0x83, 0x31, 0xb2, 0x6b, 0x31, 0xe3, 0x2d, 
  0xd9, 0xb0, 0xd6, 0xb2, 0x16, 0xaa, 0xc7, 0x30, 0x91, 0x31, 0xf3, 0x31, 
  0x15, 0x30, 0x09, 0xb1, 0xf0, 0x2f, 0xaa, 0x2d, 0xf7, 0x30, 0x32, 0xad, 
  0xfd, 0xad, 0xe9, 0xaf, 0xc0, 0xae, 0x2f, 0x1d, 0x98, 0xb3, 0xb3, 0x1e, 
  0xf3, 0xa8, 0x5f, 0x21, 0xad, 0x29, 0xe2, 0xb1, 0xf7, 0xb1, 0x48, 0x2b, 
  0x0e, 0x20, 0x54, 0xac, 0xa6, 0x33, 0xe3, 0x30, 0xb7, 0xaf, 0x41, 0xa0, 
  0x8f, 0xb3, 0xd8, 0xaf, 0x59, 0x2c, 0x7e, 0x31, 0x3b, 0xac, 0x2d, 0xb0, 
  0x7c, 0x31, 0x0f, 0x90, 0x5d, 0x18, 0x96, 0x31, 0x24, 0xae, 0x00, 0xb3, 
  0x98, 0xb1, 0x09, 0x2a, 0x62, 0x23, 0x3e, 0xa7, 0xbe, 0x28, 0x0f, 0x2f, 
  0x0b, 0x2c, 0x46, 0xb2, 0x6b, 0x31, 0xc1, 0x2b, 0x28, 0x2b, 0x36, 0x23, 
  0x7d, 0xac, 0xf7, 0x28, 0x70, 0x2c, 0xe8, 0x31, 0x17, 0x2f, 0x9d, 0x30, 
  0x45, 0x34, 0x45, 0xac, 0x4a, 0xaf, 0x71, 0x2d, 0xb3, 0xa7, 0x40, 0x2b, 
  0xee, 0x2e, 0xf9, 0x2a, 0x05, 0x2e, 0x5c, 0xb0, 0x4d, 0x25, 0xdf, 0x21, 
  0x83, 0x2e, 0xae, 0x31, 0x25, 0xaf, 0x6c, 0xb2, 0x03, 0xab, 0x36, 0xb4, 
  0xfa, 0xaf, 0x71, 0xaa, 0x5f, 0x31, 0x68, 0xb0, 0x05, 0xb0, 0x84, 0x24, 
  0x7d, 0xb0, 0x3e, 0x31, 0xdf, 0x30, 0x40, 0xb2, 0x28, 0x2d, 0x56, 0x30, 
  0xa8, 0xb2, 0x11, 0xa3, 0x20, 0x24, 0xe5, 0x2f, 0x3a, 0xa6, 0xcc, 0x2f, 
  0xa0, 0xa0, 0x6d, 0xb0, 0xaf, 0x2c, 0x1c, 0xaf, 0x20, 0xb2, 0xa4, 0x9d, 
  0xdb, 0xaa, 0xbc, 0x2e, 0x9e, 0xa8, 0x6f, 0xa6, 0x34, 0xa1, 0xf6, 0x30, 
  0x0f, 0x2c, 0x02, 0x33, 0xa7, 0x96, 0x9e, 0xb0, 0xfb, 0xac, 0x70, 0xb4, 
  0xba, 0xa9, 0xfc, 0x31, 0x2c, 0xa0, 0xf7, 0x31, 0x67, 0xb4, 0x3b, 0xaf, 
  0x9f, 0x31, 0xaa, 0xb2, 0x28, 0x9a, 0x21, 0xb0, 0x6f, 0x2c, 0x6b, 0xb2, 
  0x49, 0xb1, 0x98, 0xb0, 0xfe, 0xa0, 0x9e, 0x2d, 0xcf, 0x95, 0xb0, 0x27, 
  0xc7, 0x2a, 0x7f, 0x2b, 0xaf, 0x2d, 0x77, 0x2d, 0xea, 0x2e, 0x41, 0xb0, 
  0x69, 0x31, 0xc3, 0xae, 0x84, 0xaf, 0x61, 0x32, 0x7d, 0xad, 0x20, 0x2e, 
  0x53, 0xa5, 0xd5, 0x31, 0x0d, 0xb1, 0x9f, 0x9d, 0x80, 0x2c, 0xf2, 0xb1, 
  0xa9, 0xb1, 0x82, 0xa4, 0x44, 0xa7, 0x26, 0x30, 0xf6, 0xa3, 0x17, 0xb2, 
  0x57, 0xa4, 0x68, 0xaf, 0xec, 0xb2, 0xd4, 0x32, 0x6b, 0xa5, 0x74, 0x31, 
  0xa0, 0x30, 0x82, 0x25, 0x7b, 0x1f, 0xf2, 0x2d, 0x95, 0xac, 0x58, 0xb0, 
  0xf3, 0xac, 0x3d, 0x9d, 0xcc, 0xb0, 0x98, 0x30, 0x39, 0xb0, 0xad, 0x31, 
  0x00, 0x32, 0x81, 0x31, 0xbc, 0x31, 0xed, 0xa4, 0xc9, 0xa0, 0x68, 0x28, 
  0xce, 0x30, 0x02, 0xb1, 0x6b, 0x27, 0x0c, 0x34, 0xa3, 0xb3, 0x1a, 0xb1, 
  0xeb, 0xa8, 0x06, 0xb1, 0x53, 0x33, 0x49, 0x30, 0x7e, 0x32, 0xa4, 0xae, 
  0xb7, 0xb1, 0x46, 0x31, 0x7b, 0x2f, 0x02, 0x33, 0x54, 0xb1, 0xc0, 0x2e, 
  0xf4, 0x33, 0x92, 0xb0, 0x8d, 0xb2, 0x6e, 0x2a, 0x08, 0xae, 0xd6, 0xb1, 
  0x26, 0x33, 0x7d, 0xac, 0x6a, 0xaa, 0xd8, 0x31, 0x42, 0xb2, 0x49, 0x30, 
  0xcb, 0xa5, 0xc1, 0x32, 0x2c, 0xb1, 0x3b, 0xb1, 0x73, 0xac, 0x48, 0xa7, 
  0xf3, 0x1e, 0xa1, 0x2e, 0x02, 0xaf, 0x4d, 0x30, 0xa8, 0x24, 0x56, 0x2e, 
  0x3f, 0x2f, 0x6c, 0xa0, 0x10, 0xae, 0x47, 0x2a, 0xa0, 0xa8, 0x3d, 0x2c, 
  0xe5, 0x21, 0xbc, 0x29, 0xb3, 0xa5, 0x25, 0xaa, 0xa4, 0xb0, 0x66, 0x2a, 
  0x2a, 0xb4, 0xa3, 0x32, 0xe1, 0xb1, 0x82, 0x31, 0x6c, 0x27, 0xbb, 0xaf, 
  0x63, 0xa0, 0x31, 0x27, 0x3e, 0xa7, 0x3a, 0x2f, 0x41, 0x31, 0x91, 0x2f, 
  0x24, 0xb2, 0x41, 0x30, 0xcd, 0xa5, 0x15, 0x30, 0xbd, 0xb1, 0x61, 0x28, 
  0xfb, 0xb2, 0x4e, 0xac, 0xc3, 0x30, 0x27, 0xb0, 0xcd, 0xad, 0x89, 0x2d, 
  0x1d, 0x2d, 0xba, 0x2e, 0x37, 0x2e, 0x19, 0xb0, 0x50, 0x2d, 0xdd, 0xb1, 
  0x0a, 0xa9, 0xdb, 0xac, 0x65, 0x30, 0x60, 0xa8, 0xf7, 0xac, 0x9e, 0x2d, 
  0xf9, 0xa6, 0x13, 0x31, 0x21, 0x2e, 0xe1, 0xb2, 0x32, 0x1d, 0x4b, 0x2d, 
  0xb4, 0xae, 0x5a, 0xb1, 0x9b, 0x30, 0xec, 0x2f, 0x39, 0xb0, 0xab, 0xaa, 
  0xdf, 0x2e, 0xb7, 0x32, 0xba, 0xaa, 0x34, 0x23, 0xdc, 0x30, 0x31, 0x32, 
  0x66, 0xa4, 0xdf, 0xad, 0x2f, 0xa7, 0x40, 0x2a, 0xa2, 0x2b, 0xd2, 0x29, 
  0x36, 0xb1, 0x72, 0x2f, 0x4f, 0xb0, 0x42, 0xb1, 0xd5, 0xb3, 0x2c, 0x30, 
  0xfc, 0xb2, 0xbb, 0xb2, 0x85, 0xb2, 0x76, 0x29, 0xbb, 0x27, 0xba, 0xb0, 
  0xed, 0xa7, 0x82, 0xb0, 0xc5, 0x30, 0x09, 0x9c, 0x1c, 0x28, 0x66, 0xb3, 
  0x07, 0x2e, 0x8e, 0xa1, 0x79, 0x2c, 0x23, 0x2d, 0x3f, 0xa8, 0x67, 0x30, 
  0x56, 0x2f, 0xf6, 0x22, 0xe8, 0xb0, 0xe6, 0xa3, 0xad, 0x31, 0xf6, 0xac, 
  0x7d, 0x1c, 0xbd, 0x9a, 0xeb, 0x21, 0xcb, 0x28, 0x15, 0xb4, 0x5e, 0x2a, 
  0x92, 0x28, 0x5a, 0xa8, 0xa7, 0xb1, 0x31, 0xaf, 0x37, 0xa9, 0xd2, 0xae, 
  0x23, 0x2c, 0x23, 0x9c, 0x70, 0x2a, 0x43, 0x30, 0x06, 0x30, 0xaf, 0x2e, 
  0xc9, 0xb2, 0x80, 0xb2, 0x3a, 0x32, 0xe4, 0x1c, 0xeb, 0x31, 0x17, 0x32, 
  0x12, 0xab, 0x89, 0xa8, 0x01, 0x2a, 0x0a, 0xb4, 0x76, 0x26, 0x21, 0x1d, 
  0x2f, 0x2a, 0x02, 0xac, 0xfe, 0xb0, 0xf3, 0x2f, 0xa4, 0x2e, 0x06, 0x0b, 
  0x04, 0xae, 0xba, 0x29, 0x6d, 0x30, 0x42, 0x2d, 0x7c, 0x31, 0x6b, 0x25, 
  0xb8, 0xa3, 0x85, 0x31, 0xa5, 0xb0, 0xd3, 0xac, 0x4d, 0x32, 0xe1, 0x23, 
  0x84, 0x32, 0x74, 0xb0, 0xd3, 0x2d, 0x79, 0x31, 0x2d, 0xaa, 0x63, 0x30, 
  0x51, 0xa6, 0x51, 0xa8, 0x96, 0x27, 0x28, 0xab, 0xa3, 0xa8, 0x56, 0x2d, 
  0xc8, 0xab, 0x3d, 0x33, 0xe8, 0xa7, 0x0c, 0x33, 0x3b, 0x1f, 0x02, 0xac, 
  0x02, 0xac, 0x6d, 0xb1, 0x7a, 0xad, 0x90, 0x31, 0x0a, 0x9c, 0xef, 0x32, 
  0xb6, 0x32, 0x67, 0xb1, 0x9f, 0xb1, 0xd6, 0xb2, 0x08, 0x31, 0xd8, 0xab, 
  0x0d, 0xaf, 0x30, 0xb4, 0x61, 0xb0, 0x68, 0xb2, 0x74, 0x2e, 0x0c, 0xb2, 
  0x22, 0x2f, 0xcb, 0x31, 0x2b, 0x34, 0x1e, 0xb0, 0xcd, 0x2d, 0x1f, 0xac, 
  0x2e, 0xae, 0xbe, 0x23, 0xa8, 0x32, 0xd2, 0x30, 0xdc, 0xa6, 0x2c, 0xac, 
  0xee, 0xb4, 0x24, 0xb1, 0x95, 0xa0, 0x89, 0x2d, 0x84, 0x2a, 0xb2, 0xa2, 
  0x18, 0x98, 0x66, 0xa9, 0x7d, 0x30, 0x20, 0xb2, 0x98, 0xab, 0x0f, 0xac, 
  0x2b, 0x24, 0xaa, 0x32, 0x6b, 0x2f, 0x71, 0x1e, 0x0f, 0x2d, 0xa4, 0xb3, 
  0x53, 0xae, 0x19, 0xb1, 0xde, 0x2e, 0x3b, 0x32, 0xa8, 0xac, 0x27, 0x2f, 
  0x2e, 0xb0, 0xa6, 0xb2, 0x6b, 0x14, 0x82, 0xae, 0x31, 0xab, 0x92, 0xae, 
  0xdd, 0xac, 0x86, 0xab, 0x06, 0xa7, 0x87, 0xa8, 0x79, 0x2b, 0x31, 0xaf, 
  0xcd, 0xb2, 0x5a, 0x31, 0xad, 0x34, 0xbf, 0x2d, 0x33, 0xb2, 0x01, 0xb3, 
  0x3e, 0xad, 0x67, 0xb2, 0xb6, 0x2f, 0x26, 0xb1, 0xaa, 0xb3, 0xc9, 0xb0, 
  0x39, 0xaf, 0xfa, 0x9f, 0xaf, 0x31, 0xc1, 0xa9, 0xe8, 0x31, 0xb9, 0x29, 
  0xd7, 0xac, 0x79, 0xb3, 0xec, 0x30, 0x59, 0x31, 0x26, 0xa8, 0xec, 0x30, 
  0x36, 0xa6, 0xd1, 0x2f, 0x57, 0x17, 0x32, 0x2d, 0x9b, 0xaf, 0xd8, 0xb0, 
  0xc3, 0xb0, 0xdc, 0xad, 0x61, 0x1f, 0x0b, 0xad, 0x16, 0x28, 0x7c, 0x03, 
  0x22, 0xb0, 0xf9, 0x31, 0x82, 0x33, 0x76, 0x33, 0x4e, 0xb2, 0xea, 0x2f, 
  0xb8, 0xac, 0x1b, 0xae, 0x50, 0xb0, 0xe0, 0xad, 0x38, 0x29, 0x97, 0xab, 
  0x72, 0xb0, 0xf3, 0x31, 0x89, 0xb0, 0x1e, 0xb0, 0x49, 0x2d, 0x70, 0xb0, 
  0x15, 0x2a, 0x2a, 0xb1, 0xa2, 0xa7, 0x3a, 0x34, 0xba, 0xb2, 0xb3, 0xb1, 
  0x96, 0x2d, 0xb3, 0x30, 0x9d, 0x26, 0xe7, 0xab, 0xed, 0xa5, 0x77, 0x29, 
  0x64, 0xb0, 0x3d, 0x20, 0x07, 0x27, 0x5a, 0xb0, 0x59, 0xb0, 0x44, 0x24, 
  0x76, 0xa6, 0x58, 0xa8, 0x8c, 0x2c, 0x2d, 0xae, 0x52, 0xab, 0xb3, 0x31, 
  0xc7, 0xb0, 0x53, 0x2e, 0xb4, 0x32, 0xa2, 0xa3, 0x2a, 0x31, 0x22, 0xac, 
  0x0b, 0xa2, 0x45, 0x2a, 0xb7, 0x30, 0x92, 0xac, 0x19, 0x30, 0x10, 0x32, 
  0x5b, 0x30, 0x04, 0xb2, 0x9b, 0x2b, 0x72, 0xb0, 0xb2, 0x26, 0x74, 0xb2, 
  0x8a, 0x2d, 0x92, 0x30, 0xa6, 0xae, 0x78, 0x30, 0xce, 0xb2, 0x87, 0x30, 
  0x84, 0x8e, 0xc1, 0x30, 0xd6, 0xaa, 0x4a, 0xaf, 0x26, 0xb1, 0xec, 0xb0, 
  0x08, 0xb0, 0x6e, 0xac, 0xff, 0xa2, 0x75, 0xae, 0xfd, 0x29, 0xd6, 0xa8, 
  0xd2, 0xad, 0x3a, 0x2f, 0xfd, 0x30, 0x25, 0x2c, 0x51, 0x2a, 0xad, 0x24, 
  0xc3, 0x2e, 0x68, 0x31, 0xc4, 0xa2, 0xdb, 0x30, 0x25, 0x2e, 0x44, 0xb1, 
  0x05, 0x20, 0xc0, 0xab, 0x0a, 0x2d, 0x78, 0xb1, 0x2e, 0x19, 0x48, 0xb3, 
  0x23, 0xb1, 0x08, 0xae, 0x62, 0xad, 0xa5, 0xad, 0xb2, 0xb0, 0xa4, 0xae, 
  0x09, 0xb3, 0x3e, 0x33, 0xcd, 0xa9, 0x94, 0x24, 0x2c, 0x30, 0xd9, 0x2f, 
  0xb6, 0x30, 0x4d, 0xaf, 0x07, 0xac, 0xf9, 0x2e, 0x85, 0xb4, 0x53, 0x33, 
  0x6c, 0xa6, 0xd1, 0x24, 0x50, 0x27, 0xf1, 0xa0, 0x0a, 0xaa, 0xdb, 0x33, 
  0x4a, 0xb3, 0xa4, 0xa0, 0x56, 0x32, 0xff, 0xa2, 0x75, 0x8c, 0x79, 0x21, 
  0xec, 0xb1, 0x36, 0x2c, 0xfa, 0x9f, 0x82, 0xab, 0x60, 0xb3, 0xca, 0x30, 
  0xc7, 0xa8, 0x5d, 0xa7, 0x52, 0x2d, 0x19, 0x30, 0x09, 0x26, 0xdc, 0x98, 
  0x68, 0xb1, 0x56, 0x28, 0xd0, 0xb2, 0x38, 0xaa, 0x82, 0x2f, 0xe2, 0x30, 
  0xfb, 0xa9, 0x8e, 0xad, 0xd8, 0x2e, 0xae, 0xae, 0xbb, 0x2d, 0x68, 0x32, 
  0xa4, 0x9f, 0x81, 0xab, 0x7e, 0xb4, 0xcb, 0xae, 0x98, 0xa1, 0x52, 0xb0, 
  0xc5, 0x9e, 0x01, 0x23, 0x10, 0x2d, 0x1b, 0x93, 0x22, 0xa1, 0xf0, 0x2c, 
  0x53, 0xae, 0xee, 0xb0, 0x29, 0xa8, 0x73, 0xb1, 0xad, 0xaa, 0x08, 0xb4, 
  0x42, 0xb0, 0x56, 0x32, 0x22, 0x29, 0xb9, 0xab, 0xaa, 0x2e, 0x41, 0xb0, 
  0x03, 0xb2, 0x76, 0x24, 0xed, 0x29, 0xbc, 0xae, 0x14, 0xb3, 0x27, 0xb1, 
  0xed, 0xac, 0x33, 0x2b, 0xe1, 0xa7, 0x3b, 0xb0, 0x18, 0x31, 0x1b, 0xb2, 
  0x38, 0x2b, 0xc4, 0xa2, 0xb1, 0xb0, 0xa2, 0xad, 0xd9, 0x30, 0xbe, 0xb2, 
  0xb2, 0x2d, 0x12, 0xad, 0x6b, 0x33, 0xbc, 0x2d, 0x68, 0xaf, 0x71, 0xb0, 
  0x0a, 0x9e, 0xa5, 0x2e, 0x16, 0x2e, 0xcd, 0x31, 0x5f, 0x28, 0x69, 0x32, 
  0xc3, 0x31, 0x30, 0x18, 0x18, 0xad, 0xaa, 0x24, 0xb0, 0x2c, 0xa0, 0x25, 
  0xe8, 0x30, 0x29, 0x30, 0x88, 0xac, 0xb8, 0x2e, 0x6a, 0xb0, 0x24, 0xb4, 
  0x84, 0x30, 0xc9, 0x2e, 0x43, 0x2f, 0x76, 0x2e, 0x65, 0xab, 0xc3, 0x2b, 
  0x57, 0xb2, 0xb8, 0x29, 0x63, 0x31, 0x8d, 0x32, 0x90, 0x22, 0xbd, 0xb3, 
  0x3a, 0x31, 0x62, 0x2f, 0x58, 0x2f, 0xf2, 0x30, 0x42, 0x33, 0x4a, 0x30, 
  0xa6, 0xa9, 0x56, 0x2f, 0xbb, 0xb1, 0x56, 0x2e, 0x25, 0xb0, 0x46, 0x2c, 
  0x3f, 0xac, 0x2e, 0x2c, 0x05, 0x29, 0x3b, 0xb0, 0x21, 0x32, 0xf8, 0xae, 
  0xab, 0x29, 0x86, 0x2c, 0xaa, 0xa8, 0xbb, 0x2d, 0x7c, 0x27, 0xea, 0x25, 
  0x64, 0xb1, 0x63, 0xb2, 0x29, 0xa5, 0x98, 0xad, 0xf5, 0xab, 0x3f, 0xa6, 
  0x7c, 0x25, 0x32, 0x28, 0x28, 0x2d, 0xdc, 0x2a, 0x27, 0xa7, 0x7c, 0x30, 
  0x70, 0x2e, 0xc2, 0xa8, 0xf4, 0x2f, 0x33, 0xad, 0xe8, 0xae, 0x85, 0x2e, 
  0x03, 0x2a, 0x53, 0xb0, 0x01, 0xa4, 0xb8, 0x2d, 0x52, 0xb4, 0xcd, 0x2d, 
  0x2d, 0xaa, 0x0f, 0xaf, 0xe2, 0xab, 0x38, 0x26, 0x9d, 0xb0, 0x71, 0xb2, 
  0xb2, 0xb0, 0x69, 0x0d, 0xab, 0xae, 0x6e, 0xad, 0xf0, 0xb1, 0x31, 0x24, 
  0x9c, 0xb2, 0xc4, 0x30, 0xc5, 0xac, 0x80, 0x30, 0x81, 0x27, 0x2f, 0x29, 
  0xa6, 0x32, 0x93, 0xb2, 0xff, 0x32, 0x18, 0xae, 0x4d, 0x9d, 0xf6, 0xb1, 
  0xfb, 0xad, 0xea, 0x2a, 0xff, 0x2c, 0xd7, 0x2b, 0x1c, 0x25, 0x58, 0x24, 
  0x37, 0x30, 0xdf, 0x31, 0xc1, 0xa6, 0x97, 0xaa, 0xee, 0xb0, 0xf1, 0x31, 
  0xf8, 0x30, 0x6e, 0xa9, 0xa2, 0x26, 0x0d, 0x30, 0x25, 0x2c, 0x3c, 0x2c, 
  0x67, 0x2f, 0xd5, 0xb1, 0x43, 0xad, 0xce, 0x30, 0x7e, 0x30, 0xb3, 0xb1, 
  0x96, 0xb0, 0x73, 0xb1, 0x05, 0x2c, 0x77, 0x2d, 0x4a, 0x2f, 0x25, 0x29, 
  0xf9, 0x29, 0xbe, 0xb0, 0x22, 0x32, 0xc6, 0x2c, 0xc2, 0x2d, 0x7e, 0x30, 
  0x38, 0x33, 0xde, 0xae, 0x25, 0xa4, 0x8a, 0xad, 0x55, 0xb0, 0x34, 0xb1, 
  0x35, 0xac, 0xb7, 0x30, 0x56, 0x18, 0x17, 0x9e, 0xab, 0x2f, 0x6e, 0xb4, 
  0xca, 0xad, 0xa2, 0x2c, 0x08, 0xa2, 0x0b, 0xa9, 0xab, 0x1a, 0xf3, 0x31, 
  0x95, 0x2f, 0x18, 0xb1, 0x4e, 0x00, 0x00, 0xa5, 0x86, 0xb0, 0xe1, 0xab, 
  0x25, 0xae, 0xd7, 0x32, 0x89, 0x30, 0x3c, 0x32, 0x9e, 0x32, 0xcb, 0x31, 
  0x64, 0xb0, 0x4e, 0xb0, 0x2f, 0x31, 0x23, 0xb1, 0xf7, 0x30, 0x12, 0xb1, 
  0xbe, 0xa8, 0xa2, 0xa5, 0x7a, 0xad, 0xb5, 0xa8, 0x05, 0x2d, 0xa2, 0xb2, 
  0x2f, 0x30, 0x49, 0xaf, 0x51, 0x2d, 0xe8, 0x31, 0x9c, 0x31, 0xfd, 0xb1, 
  0xae, 0x2e, 0x34, 0x32, 0x5d, 0xb1, 0x0d, 0x31, 0xf4, 0x2f, 0xec, 0xad, 
  0x18, 0xac, 0x84, 0xae, 0x03, 0xb3, 0xfc, 0x29, 0x01, 0xa2, 0x3d, 0x2e, 
  0x3f, 0x31, 0xeb, 0xae, 0xaa, 0xaa, 0x2b, 0x2d, 0x20, 0x2a, 0xb0, 0xb2, 
  0xcb, 0x30, 0x01, 0xac, 0x8d, 0x2e, 0x7d, 0xb0, 0x6b, 0xb3, 0xa7, 0xb1, 
  0x81, 0xb2, 0x07, 0x27, 0x90, 0x30, 0x1a, 0x30, 0x11, 0x30, 0x06, 0x30, 
  0x4c, 0xad, 0x8e, 0x22, 0x9c, 0xa4, 0xd6, 0x20, 0x96, 0x83, 0xbd, 0xaf, 
  0xaf, 0x2a, 0x51, 0x32, 0xb7, 0xad, 0xd3, 0xab, 0x42, 0x32, 0x9b, 0xb2, 
  0x84, 0x2f, 0x08, 0xb2, 0x25, 0x30, 0x1a, 0x30, 0xf2, 0xaf, 0xc4, 0x30, 
  0xde, 0xa2, 0x5c, 0x29, 0x4c, 0xa7, 0x82, 0x2c, 0x2d, 0x9c, 0x1f, 0xb3, 
  0xd7, 0xa3, 0x5f, 0x2f, 0xfd, 0x1e, 0x07, 0xac, 0xbb, 0xb2, 0x4f, 0xae, 
  0x8b, 0x2b, 0xcd, 0xb1, 0x7f, 0x2f, 0x02, 0xa6, 0x7f, 0x2f, 0x72, 0xad, 
  0xe1, 0x2e, 0x0e, 0x2e, 0x00, 0xb4, 0x42, 0x20, 0xd3, 0x23, 0xfe, 0x2b, 
  0xd2, 0x27, 0x71, 0x22, 0xcc, 0xb0, 0xa0, 0x25, 0xa4, 0x30, 0x6e, 0x2f, 
  0xaf, 0xb1, 0xe6, 0xa7, 0xe3, 0xad, 0x0d, 0x2a, 0x37, 0xaa, 0xbe, 0xa0, 
  0x21, 0xb1, 0x05, 0xac, 0x38, 0xb3, 0x7a, 0x2e, 0x52, 0x28, 0x5b, 0xa8, 
  0xa3, 0xb3, 0xeb, 0x24, 0xde, 0xab, 0xb8, 0x2d, 0xc9, 0x32, 0xb5, 0x2e, 
  0xf7, 0xb2, 0xd7, 0xa5, 0xee, 0x2a, 0x10, 0x8c, 0x44, 0x2c, 0xa0, 0xb1, 
  0xe9, 0x31, 0xf1, 0xae, 0xb6, 0xa5, 0xff, 0xff, 0x04, 0x00, 0x00, 0x00, 
  0x40, 0x00, 0x00, 0x00, 0x8f, 0x38, 0xb7, 0x38, 0x90, 0xb4, 0xb0, 0xb5, 
  0x32, 0x3c, 0x84, 0x38, 0x3b, 0x3a, 0x38, 0x37, 0xc7, 0x37, 0xe1, 0x25, 
  0x18, 0x33, 0x56, 0x3c, 0xe8, 0x3e, 0x79, 0x39, 0x44, 0xb9, 0xee, 0x3c, 
  0x3b, 0xae, 0x84, 0x31, 0xe9, 0x38, 0xbc, 0xb4, 0x7e, 0x37, 0x0a, 0x3b, 
  0xcd, 0xb6, 0x8d, 0x3d, 0xc1, 0x3a, 0xee, 0x3a, 0x7d, 0x3a, 0x47, 0xb5, 
  0xf9, 0x38, 0x81, 0xb4, 0x5a, 0xb1, 0xdc, 0x38, 0x02, 0xa6, 0xff, 0xff, 
  0x04, 0x00, 0x00, 0x00, 0x00, 0x40, 0x00, 0x00, 0x8b, 0xb6, 0x67, 0x36, 
  0xde, 0xb9, 0x2a, 0x34, 0x9b, 0xb8, 0xba, 0x34, 0x45, 0x37, 0x43, 0x35, 
  0x47, 0xb6, 0x56, 0x38, 0xd5, 0xab, 0x95, 0x2a, 0x00, 0xba, 0x9a, 0x2b, 
  0x69, 0x2b, 0x92, 0x34, 0x61, 0x37, 0xd0, 0x36, 0xdb, 0x34, 0xce, 0x36, 
  0x49, 0x36, 0x27, 0xbb, 0x35, 0xb8, 0xb7, 0x39, 0x0e, 0xb3, 0x42, 0x38, 
  0x66, 0xb7, 0x7a, 0xb7, 0x48, 0xab, 0xc5, 0xaf, 0xe1, 0xb5, 0xd7, 0xb8, 
  0xa9, 0xb6, 0xb4, 0xb0, 0xf3, 0xb0, 0xf8, 0xb2, 0x6e, 0xb7, 0xe7, 0x39, 
  0x5b, 0xad, 0xef, 0xb0, 0x5e, 0x9e, 0x60, 0xb8, 0x4e, 0x35, 0xef, 0xac, 
  0xf0, 0x31, 0x31, 0xb9, 0xfc, 0x23, 0xa8, 0x35, 0x3c, 0xb4, 0xd2, 0xb8, 
  0xab, 0xb4, 0x20, 0xb6, 0x9e, 0x2d, 0x94, 0xb6, 0xc2, 0x35, 0xb6, 0x31, 
  0xde, 0x25, 0x5c, 0xbb, 0xfe, 0xb9, 0x31, 0x35, 0x45, 0xb5, 0xa9, 0x36, 
  0x37, 0xaf, 0xce, 0x34, 0x61, 0xb4, 0xbb, 0xb2, 0x7b, 0x31, 0x94, 0x22, 
  0xcb, 0xb2, 0x78, 0xaa, 0xd2, 0xb4, 0x45, 0x33, 0xc3, 0x30, 0x8f, 0xb5, 
  0xb0, 0xa7, 0xfe, 0x37, 0x38, 0xb0, 0xf1, 0xa8, 0x0a, 0xb8, 0xb7, 0x33, 
  0xc9, 0x31, 0x26, 0xb8, 0x07, 0xb2, 0xe9, 0x2a, 0x74, 0x3b, 0x45, 0xb3, 
  0x5e, 0xaa, 0x8a, 0xb7, 0x63, 0x32, 0x8e, 0x39, 0x85, 0x36, 0x2a, 0x29, 
  0x04, 0xb6, 0xd5, 0x20, 0x07, 0xb6, 0xeb, 0xaf, 0x3d, 0xb9, 0xdb, 0xb7, 
  0x75, 0xb4, 0xac, 0x38, 0x0f, 0x36, 0x5f, 0x3b, 0xfc, 0x32, 0x65, 0x30, 
  0xd8, 0x34, 0xa6, 0xb6, 0x06, 0x36, 0x03, 0xb3, 0x7c, 0xbb, 0x63, 0xb4, 
  0xee, 0x39, 0x4a, 0xb5, 0xaf, 0xb0, 0xb6, 0xa9, 0xd8, 0x35, 0x72, 0xb1, 
  0x7c, 0xbc, 0x17, 0x34, 0xe8, 0xaf, 0x7d, 0xb9, 0xa8, 0x30, 0x3e, 0x36, 
  0xa4, 0x39, 0x13, 0xb4, 0xc8, 0x36, 0x8d, 0xb4, 0xbc, 0xb5, 0xaa, 0xb8, 
  0x9c, 0xae, 0x1d, 0xaf, 0x4b, 0xb4, 0xba, 0xb8, 0x18, 0x3a, 0x94, 0x29, 
  0x33, 0x30, 0xf9, 0x33, 0x90, 0x3a, 0x82, 0x3b, 0xf5, 0x31, 0x22, 0xa7, 
  0x93, 0xb5, 0xaa, 0x2e, 0xc2, 0x35, 0xf3, 0xaf, 0x97, 0x37, 0x7a, 0x31, 
  0xa1, 0xb2, 0x13, 0xae, 0x55, 0x2d, 0xfd, 0xb4, 0xa2, 0x37, 0x73, 0xb3, 
  0x4d, 0xa7, 0x09, 0x37, 0x53, 0xb6, 0x7f, 0x38, 0xc4, 0x2d, 0x23, 0x2a, 
  0x73, 0xa5, 0x73, 0x32, 0xd7, 0xb8, 0x37, 0x34, 0xd4, 0x32, 0x07, 0x2b, 
  0x41, 0xbd, 0x58, 0x23, 0x5b, 0x35, 0x7e, 0x29, 0x55, 0x36, 0xfb, 0xb5, 
  0xee, 0xaf, 0x00, 0xbb, 0x6e, 0x2e, 0xeb, 0x38, 0xec, 0x37, 0x8a, 0xb2, 
  0xbc, 0xac, 0xbc, 0x3a, 0x57, 0x32, 0xda, 0xb0, 0x8b, 0x37, 0x1b, 0xb8, 
  0xca, 0xae, 0x3e, 0xb4, 0xe7, 0x28, 0x0c, 0x3c, 0x3e, 0xab, 0xa3, 0xb5, 
  0xa5, 0x32, 0xa9, 0xb6, 0x98, 0xab, 0x21, 0xad, 0x8d, 0xb9, 0xf9, 0xb0, 
  0xb9, 0xb5, 0x8b, 0xb7, 0x4e, 0xae, 0x5f, 0xb5, 0x73, 0x37, 0x68, 0x39, 
  0xe4, 0xb4, 0x97, 0xb9, 0xda, 0xab, 0xc5, 0x37, 0x11, 0xae, 0x81, 0xaf, 
  0x86, 0xb0, 0x79, 0x37, 0x6c, 0x38, 0x3d, 0x38, 0xcb, 0xb8, 0x0e, 0x38, 
  0x31, 0xb0, 0xc0, 0xb1, 0x8a, 0x34, 0xa3, 0x31, 0x70, 0xb4, 0x1c, 0xb8, 
  0x55, 0x32, 0xa0, 0x34, 0x67, 0x36, 0xab, 0xb8, 0xea, 0xb5, 0x9a, 0xb6, 
  0x3f, 0x31, 0x44, 0x36, 0x44, 0x30, 0xff, 0x32, 0x38, 0x33, 0xd0, 0xb3, 
  0x3f, 0x30, 0x0c, 0xb2, 0xbc, 0x2d, 0x5b, 0x29, 0x3d, 0x36, 0xf0, 0xb8, 
  0x92, 0x3b, 0x20, 0x37, 0x16, 0x3a, 0xbc, 0x38, 0x59, 0xb5, 0x09, 0xb3, 
  0x16, 0xb4, 0x93, 0x2b, 0x69, 0xbb, 0xf2, 0xb3, 0xa2, 0xb8, 0x18, 0xa0, 
  0xd1, 0x38, 0x60, 0x9c, 0x48, 0xbb, 0x4f, 0xb6, 0x03, 0x2c, 0xb0, 0xb7, 
  0x4f, 0x1f, 0xd2, 0xb8, 0x40, 0x36, 0xae, 0xb0, 0xf8, 0xb8, 0xbc, 0x37, 
  0x97, 0x38, 0xac, 0x36, 0xff, 0x29, 0x1a, 0xb8, 0x60, 0x38, 0x49, 0xa9, 
  0x09, 0xb6, 0x5f, 0xae, 0x50, 0x37, 0x78, 0x31, 0x12, 0xba, 0xc5, 0xb5, 
  0x38, 0xaa, 0x36, 0xb3, 0x99, 0x2f, 0x5d, 0x38, 0x7a, 0xa8, 0x36, 0x39, 
  0x22, 0x38, 0xe2, 0x3b, 0x4d, 0xb7, 0x6b, 0x2c, 0x86, 0x34, 0x0f, 0xb9, 
  0x40, 0x2e, 0x5e, 0x38, 0x3d, 0xac, 0x0c, 0x39, 0x6f, 0xb7, 0x71, 0x35, 
  0x19, 0xb8, 0x1b, 0x31, 0xfb, 0x3b, 0xce, 0xb9, 0xb9, 0x35, 0xd3, 0xb5, 
  0x7d, 0x37, 0x91, 0xbd, 0x93, 0xb1, 0x02, 0x39, 0x94, 0xb1, 0x7a, 0x38, 
  0xf1, 0x32, 0x17, 0x2f, 0x60, 0xac, 0x73, 0x39, 0xa7, 0xb4, 0x11, 0xb2, 
  0xc2, 0xba, 0x7f, 0xb9, 0x29, 0xb1, 0x74, 0xac, 0x8b, 0x34, 0x7d, 0x38, 
  0x54, 0xb7, 0xd2, 0xb6, 0x32, 0xb8, 0x82, 0xb7, 0xe8, 0x38, 0x08, 0xaf, 
  0xd2, 0x38, 0x8d, 0x2a, 0x5a, 0xae, 0xfe, 0x35, 0x9b, 0xb8, 0xf7, 0xb4, 
  0xe4, 0xb6, 0x82, 0x38, 0x05, 0xb0, 0x64, 0x36, 0x6b, 0x2f, 0x2b, 0xaf, 
  0xe3, 0x33, 0xb7, 0x9c, 0x75, 0xb7, 0xee, 0x38, 0xb6, 0xb6, 0x75, 0xb7, 
  0x0b, 0xb9, 0x69, 0xb9, 0x50, 0xaf, 0xed, 0xb7, 0x0d, 0xbc, 0x4e, 0x2c, 
  0x9a, 0xb3, 0xb8, 0xb4, 0xf9, 0x33, 0xf9, 0x34, 0x7f, 0x32, 0x70, 0xb7, 
  0x14, 0x92, 0x73, 0x37, 0x81, 0x34, 0x8e, 0xb3, 0x42, 0xb4, 0x02, 0x35, 
  0x63, 0x37, 0x25, 0x2c, 0x9e, 0xb1, 0x01, 0x30, 0xc5, 0x2d, 0xa3, 0xb1, 
  0xd3, 0xb0, 0x70, 0x37, 0xc2, 0xba, 0x9d, 0x2a, 0xcf, 0x33, 0x84, 0xb0, 
  0x3f, 0xb5, 0xc4, 0xb3, 0x27, 0x39, 0x67, 0x38, 0xc9, 0xb9, 0x59, 0xb1, 
  0xc6, 0x36, 0x48, 0xb8, 0xbe, 0xb5, 0xd1, 0x33, 0x8c, 0x33, 0x4c, 0x2e, 
  0xc7, 0xb5, 0xe5, 0x30, 0xee, 0xb2, 0x1a, 0xbb, 0x30, 0x38, 0x71, 0x32, 
  0xad, 0x38, 0x90, 0xb5, 0x6b, 0xbc, 0x10, 0xba, 0x58, 0x2a, 0x86, 0xb8, 
  0xbf, 0x39, 0x7c, 0x31, 0xeb, 0x2c, 0xc5, 0xb6, 0xd5, 0x35, 0x76, 0x37, 
  0x5a, 0x34, 0xa5, 0x26, 0x10, 0x2e, 0x23, 0x32, 0x49, 0xab, 0xa8, 0xb2, 
  0x8f, 0x2b, 0xa1, 0xb6, 0x8e, 0xb4, 0xd8, 0xad, 0x18, 0xb9, 0xbb, 0xac, 
  0xe6, 0x38, 0xc3, 0xb7, 0x45, 0x34, 0xb0, 0x31, 0x1d, 0x3a, 0x71, 0x30, 
  0x6a, 0xb7, 0x50, 0x9c, 0xca, 0xad, 0x2c, 0x31, 0x3a, 0x3b, 0x83, 0x32, 
  0x39, 0x2d, 0x84, 0xb5, 0x90, 0x33, 0x38, 0x3d, 0x62, 0x32, 0xf8, 0xac, 
  0x05, 0xac, 0xac, 0x38, 0x9e, 0xb5, 0xd0, 0x39, 0x1c, 0xb4, 0x37, 0x24, 
  0x42, 0xba, 0x62, 0xb5, 0xcb, 0x36, 0x55, 0x2f, 0xb4, 0x31, 0x03, 0xb6, 
  0x42, 0x31, 0x24, 0x35, 0xf7, 0xa1, 0x5a, 0x38, 0x5e, 0xa7, 0x3d, 0x32, 
  0x63, 0xb0, 0x48, 0xaf, 0x03, 0xae, 0xf1, 0xb4, 0x7f, 0x34, 0xe4, 0xb8, 
  0x2f, 0x34, 0x2a, 0x31, 0x0f, 0xb8, 0x02, 0xb2, 0xf5, 0xb0, 0xe3, 0x36, 
  0x95, 0x2a, 0xa7, 0xb8, 0x59, 0xb0, 0xa6, 0xb5, 0x6d, 0x2e, 0xb9, 0x36, 
  0xa0, 0xb5, 0x87, 0xb9, 0x76, 0x34, 0x21, 0xb7, 0x64, 0x39, 0xca, 0xbc, 
  0x0f, 0x3a, 0x84, 0x35, 0x7e, 0xb7, 0xa3, 0x36, 0x4e, 0xae, 0xe0, 0x35, 
  0x19, 0xb2, 0xad, 0x21, 0xc0, 0xb7, 0xec, 0x38, 0x9a, 0xb7, 0x9a, 0xb7, 
  0xf8, 0x35, 0x08, 0x3a, 0xe0, 0xb6, 0xbd, 0xba, 0xce, 0xb1, 0x7c, 0xb8, 
  0xd4, 0x2d, 0xda, 0xb4, 0xfb, 0x34, 0x4a, 0xaf, 0x47, 0x38, 0x4a, 0xb5, 
  0x5d, 0xb1, 0xf1, 0xb4, 0x67, 0x1d, 0x54, 0xaf, 0x23, 0x36, 0x65, 0x33, 
  0x25, 0x39, 0xd4, 0x31, 0x3c, 0xb3, 0x16, 0x37, 0xbe, 0xb8, 0x59, 0xb8, 
  0x9d, 0x39, 0x98, 0xaf, 0x8c, 0xb6, 0x4d, 0xb6, 0x1a, 0xb7, 0xb9, 0xb4, 
  0x88, 0x34, 0x1b, 0x31, 0x43, 0x3a, 0xcd, 0x2c, 0x54, 0xb1, 0xdc, 0x39, 
  0x82, 0xba, 0xee, 0xb2, 0x1f, 0xb8, 0x61, 0xa9, 0xcb, 0xba, 0x93, 0x35, 
  0x4d, 0x98, 0x3e, 0xb6, 0x31, 0xad, 0x48, 0xa9, 0x5f, 0xb4, 0xde, 0xaa, 
  0x09, 0x37, 0xa3, 0x31, 0xbf, 0xb7, 0x1a, 0xb5, 0x2b, 0xb9, 0x56, 0xb9, 
  0x77, 0x39, 0x04, 0x39, 0x11, 0x34, 0xc7, 0xb8, 0x69, 0xb0, 0x60, 0x25, 
  0x1a, 0xb7, 0xd8, 0xaf, 0x7f, 0xb9, 0x5f, 0xb8, 0xb0, 0xaa, 0x24, 0x2d, 
  0xca, 0x38, 0x40, 0x34, 0x83, 0xb8, 0x0c, 0x36, 0x47, 0x31, 0x3a, 0xbb, 
  0x5e, 0x2e, 0xfe, 0xb7, 0xc2, 0x22, 0xc2, 0xb9, 0x21, 0xb7, 0x1e, 0x36, 
  0xf1, 0xb2, 0x6c, 0xac, 0x55, 0x36, 0x8a, 0x35, 0xc9, 0x32, 0x4c, 0xb8, 
  0x05, 0x2e, 0x6a, 0x38, 0x24, 0x32, 0x7c, 0x30, 0xde, 0x34, 0x96, 0x2c, 
  0x45, 0x36, 0xa5, 0x32, 0xdf, 0x35, 0xe2, 0x28, 0x4e, 0xba, 0xc8, 0x38, 
  0x39, 0xb7, 0x25, 0x34, 0xac, 0x2f, 0x38, 0x36, 0x79, 0x30, 0x48, 0xb8, 
  0xaa, 0x34, 0x83, 0xbb, 0x0c, 0xb8, 0x0e, 0x35, 0xab, 0x34, 0x3a, 0x35, 
  0x58, 0x2f, 0x6e, 0x31, 0xdd, 0x38, 0x89, 0xb1, 0x16, 0x39, 0xb7, 0xa0, 
  0x82, 0x2a, 0x50, 0xad, 0xa2, 0x9f, 0x8e, 0x36, 0x1b, 0x35, 0x0e, 0x38, 
  0x0e, 0xaf, 0x4e, 0x37, 0x79, 0x32, 0xbe, 0xa9, 0x29, 0xb2, 0x9f, 0x29, 
  0x68, 0xa5, 0x41, 0x34, 0x31, 0xb9, 0x0c, 0x38, 0x72, 0xad, 0x73, 0xba, 
  0x72, 0xb1, 0xc8, 0x35, 0x28, 0x32, 0xf6, 0xb7, 0x17, 0x35, 0x53, 0x39, 
  0x7e, 0x2d, 0x12, 0xb5, 0x6a, 0xb4, 0x69, 0xa7, 0xad, 0x27, 0x46, 0x36, 
  0x75, 0xb9, 0x25, 0xb0, 0x3e, 0xb2, 0x21, 0xa7, 0x91, 0xb3, 0xec, 0xb8, 
  0x04, 0xb2, 0xca, 0xb1, 0xdc, 0x33, 0x37, 0x37, 0x60, 0xb8, 0x52, 0x32, 
  0xfe, 0xb6, 0xfe, 0xb8, 0x67, 0xb8, 0x1d, 0xb5, 0xc2, 0xb9, 0x5c, 0xb4, 
  0xd0, 0xb5, 0x4d, 0x38, 0x9d, 0x37, 0x90, 0x36, 0xb0, 0xa2, 0x2f, 0x3a, 
  0x9a, 0x2c, 0x5e, 0x35, 0xe2, 0xb6, 0xa6, 0x37, 0x95, 0xb3, 0xc6, 0x32, 
  0x83, 0xb1, 0xc6, 0x92, 0x07, 0x31, 0x61, 0xb9, 0x1d, 0xb7, 0xbc, 0xb8, 
  0xa6, 0xb6, 0x2a, 0xb9, 0x5e, 0x36, 0x18, 0x35, 0x88, 0x18, 0x29, 0x39, 
  0xae, 0xb4, 0x86, 0x2f, 0x8c, 0xb8, 0xb0, 0xb7, 0x37, 0xb1, 0x98, 0xb9, 
  0xe0, 0xaf, 0xa6, 0xb8, 0x4a, 0xbd, 0x21, 0x34, 0x06, 0xb6, 0xb3, 0x29, 
  0x2f, 0x1c, 0x05, 0xbc, 0x27, 0x32, 0x85, 0x39, 0x93, 0x29, 0x33, 0xa5, 
  0x98, 0x27, 0x58, 0x32, 0x69, 0x32, 0x9f, 0x38, 0xc9, 0x36, 0x71, 0xa9, 
  0xc8, 0xb9, 0x5c, 0x2c, 0xd2, 0xb2, 0x2b, 0xb6, 0xdd, 0xa3, 0xa1, 0x36, 
  0x0c, 0xa9, 0xb3, 0x38, 0xce, 0xb8, 0x2a, 0x30, 0x52, 0x39, 0x89, 0x2b, 
  0xca, 0x31, 0x81, 0x36, 0x42, 0x37, 0x7c, 0xb5, 0xe9, 0xb4, 0x92, 0xb6, 
  0x45, 0x34, 0xe9, 0x30, 0xb7, 0xb6, 0x32, 0x39, 0x86, 0x34, 0x44, 0xb4, 
  0xb5, 0xb2, 0xf9, 0x32, 0x72, 0x34, 0xcd, 0xba, 0x58, 0x38, 0x29, 0xb8, 
  0x4b, 0xb1, 0xaf, 0x32, 0xed, 0x34, 0x3d, 0x3a, 0x9c, 0xae, 0x14, 0xb7, 
  0xa6, 0xb8, 0xac, 0xb2, 0xe4, 0x8b, 0x72, 0x37, 0xc9, 0xaa, 0x0c, 0xbb, 
  0x5d, 0xb4, 0xf4, 0xb0, 0x15, 0xb9, 0xd5, 0x36, 0xa9, 0x34, 0x0c, 0x37, 
  0x9e, 0x26, 0xe6, 0xad, 0x7d, 0x2d, 0x75, 0x29, 0xc1, 0xa6, 0x5d, 0xb8, 
  0x2f, 0xb7, 0xb2, 0x39, 0x42, 0xb3, 0x35, 0xb0, 0x48, 0x2b, 0x54, 0xb4, 
  0xe1, 0x34, 0x5d, 0xab, 0xce, 0xb1, 0x8f, 0x24, 0x93, 0x38, 0x7a, 0xb4, 
  0xf8, 0x2f, 0xc8, 0xb8, 0x0a, 0xb2, 0x7b, 0xb2, 0x94, 0x38, 0x94, 0x32, 
  0xbb, 0xb1, 0xc7, 0xb6, 0xbc, 0x33, 0xab, 0xbc, 0x5e, 0x37, 0x81, 0x2c, 
  0x86, 0x3c, 0x69, 0xb1, 0x91, 0x36, 0x2a, 0x30, 0x44, 0x37, 0xec, 0xb5, 
  0x29, 0xb7, 0x59, 0x32, 0x6a, 0xb3, 0x29, 0x33, 0x73, 0xa9, 0x7b, 0xb7, 
  0x54, 0xb5, 0xd9, 0xb4, 0xeb, 0x34, 0xf8, 0x37, 0x34, 0x34, 0x55, 0xa7, 
  0xcb, 0x34, 0x72, 0xb9, 0xac, 0x2f, 0x5f, 0xb1, 0x31, 0x38, 0x92, 0x34, 
  0x1e, 0xb7, 0x38, 0x38, 0x87, 0x31, 0x92, 0xb1, 0x5f, 0x38, 0xd9, 0xb8, 
  0x70, 0x35, 0x84, 0x39, 0x34, 0xa5, 0x84, 0xaf, 0x03, 0x3d, 0x19, 0xb1, 
  0xe1, 0xb7, 0x0d, 0xb3, 0x20, 0x35, 0xe8, 0xb7, 0x2b, 0xb4, 0x41, 0x2d, 
  0xcb, 0xaa, 0x69, 0xba, 0x7c, 0x32, 0x74, 0x3a, 0x6d, 0xab, 0x0e, 0xb7, 
  0xbd, 0x3b, 0x0d, 0xba, 0xc7, 0x39, 0x54, 0x35, 0x8a, 0xb4, 0xd8, 0xb4, 
  0xf3, 0xb6, 0xa8, 0x36, 0x6b, 0xb8, 0xe3, 0xad, 0x89, 0x35, 0x06, 0x28, 
  0x9f, 0x31, 0x05, 0xb4, 0xa8, 0x30, 0x1c, 0x36, 0x01, 0x30, 0x59, 0x34, 
  0xc7, 0xaf, 0x81, 0x22, 0xaa, 0xb5, 0x2f, 0x3a, 0x04, 0xb6, 0xbf, 0x39, 
  0x3d, 0x35, 0x8a, 0x2c, 0x13, 0x35, 0x5b, 0xb7, 0xa9, 0xae, 0x63, 0x38, 
  0x22, 0x24, 0xc8, 0xba, 0xf3, 0xb0, 0xbf, 0x32, 0x48, 0x35, 0xe3, 0x33, 
  0x5d, 0x3a, 0x35, 0xb0, 0xcd, 0x39, 0xbe, 0x33, 0x6f, 0x30, 0x81, 0x39, 
  0x1f, 0xaa, 0x14, 0xb7, 0x79, 0xb4, 0xf7, 0x38, 0xc6, 0xb8, 0xe5, 0xad, 
  0xfc, 0xb6, 0x01, 0x38, 0xa6, 0xb6, 0xaf, 0x36, 0x36, 0x35, 0xc2, 0xad, 
  0x60, 0xb4, 0x79, 0x33, 0xbe, 0xad, 0x31, 0xb4, 0x2b, 0x34, 0x88, 0x2e, 
  0xb8, 0xb6, 0x43, 0xa6, 0x0d, 0xb5, 0x79, 0xb2, 0x2c, 0xb8, 0xd5, 0xb7, 
  0x86, 0xb4, 0x56, 0x21, 0x34, 0xb6, 0xa5, 0xb7, 0xbd, 0x34, 0xbc, 0x35, 
  0xf8, 0x34, 0x50, 0xb4, 0xf9, 0x32, 0x07, 0xaa, 0xb7, 0xb6, 0x19, 0x3a, 
  0xd8, 0xb3, 0xbc, 0x35, 0x89, 0x34, 0x5c, 0x30, 0xad, 0x31, 0x43, 0xb8, 
  0x17, 0xb4, 0x7f, 0xb1, 0xf4, 0xb9, 0xd5, 0xb4, 0x17, 0x30, 0xfc, 0x29, 
  0xc8, 0xae, 0xb3, 0xb4, 0x23, 0xb3, 0x35, 0x30, 0x80, 0xb1, 0x18, 0x3b, 
  0x5a, 0x2a, 0x28, 0x31, 0x60, 0x1f, 0xc0, 0xb8, 0xc5, 0x32, 0x80, 0x35, 
  0xe0, 0x36, 0xd9, 0x2f, 0xbe, 0xb7, 0x01, 0xb8, 0xe6, 0xa9, 0xc0, 0x9f, 
  0x3c, 0xb7, 0x00, 0xb8, 0x0f, 0x39, 0x50, 0x30, 0x8c, 0xb0, 0x19, 0xb3, 
  0xab, 0x34, 0x59, 0xb9, 0x70, 0x32, 0x89, 0xb6, 0xf7, 0xb7, 0x19, 0x38, 
  0x17, 0xb8, 0x8e, 0xb6, 0xd9, 0x2e, 0x0f, 0x38, 0xfb, 0x30, 0x49, 0xaf, 
  0x06, 0xac, 0xc4, 0xbb, 0x1e, 0x3a, 0x58, 0x32, 0xf8, 0x28, 0x12, 0x2e, 
  0x2c, 0xb1, 0xcc, 0xb8, 0xea, 0x2d, 0x7a, 0x38, 0x44, 0xb5, 0x49, 0x37, 
  0xef, 0xb8, 0x88, 0xb9, 0x59, 0x37, 0xe1, 0xb5, 0x73, 0xb3, 0xa1, 0xb8, 
  0x1b, 0xb0, 0xab, 0x38, 0x46, 0x30, 0x67, 0x2b, 0x5b, 0xb3, 0x03, 0xba, 
  0x0d, 0xa6, 0x14, 0x35, 0x9c, 0xb8, 0xd2, 0xb6, 0x0f, 0x38, 0x92, 0x2a, 
  0xff, 0xb5, 0x76, 0x34, 0x21, 0x38, 0x3c, 0x39, 0x32, 0x35, 0x81, 0xbb, 
  0xf1, 0xa5, 0xc1, 0x38, 0x8f, 0xb9, 0x65, 0xb1, 0x13, 0xb1, 0xcb, 0xb8, 
  0x29, 0xb7, 0x05, 0x93, 0x5a, 0x38, 0xc5, 0xba, 0xf3, 0xb3, 0xb6, 0x31, 
  0x2a, 0xb4, 0x80, 0x30, 0x5b, 0xad, 0x1d, 0xb7, 0x44, 0x29, 0x80, 0x37, 
  0x98, 0x29, 0x8a, 0x2e, 0xf3, 0x31, 0xc5, 0xae, 0x2c, 0xb1, 0xa9, 0xb8, 
  0x3f, 0xb3, 0xa1, 0x32, 0x06, 0x30, 0x4a, 0xb2, 0xd2, 0x27, 0x67, 0x31, 
  0x2e, 0xb2, 0x23, 0xb9, 0x8d, 0xb6, 0x1e, 0x35, 0x27, 0x26, 0xfa, 0x38, 
  0x12, 0xb4, 0x90, 0x35, 0xf9, 0x3a, 0x35, 0xb1, 0xee, 0xb5, 0x0d, 0x36, 
  0x66, 0xb2, 0x68, 0xaf, 0x91, 0xa7, 0x2b, 0xb3, 0xc9, 0x36, 0x4f, 0xb0, 
  0x29, 0x39, 0xea, 0xb7, 0xad, 0x2d, 0xa5, 0xb6, 0x26, 0xb0, 0xc3, 0x3a, 
  0x2b, 0x2b, 0xd9, 0xb3, 0x2a, 0xb3, 0x8d, 0x34, 0x9a, 0xb6, 0x54, 0xaf, 
  0x25, 0xb9, 0xa7, 0xa2, 0x6c, 0xb8, 0x38, 0xbc, 0x05, 0xb8, 0x92, 0xb2, 
  0xff, 0xb2, 0x9d, 0x32, 0x5d, 0x2e, 0x35, 0x39, 0x08, 0xb5, 0x1c, 0xb8, 
  0x9f, 0xb6, 0x52, 0xb8, 0xce, 0x2e, 0xf6, 0x36, 0xf8, 0x28, 0x1b, 0xb9, 
  0x41, 0x33, 0x63, 0xab, 0xa4, 0x36, 0x68, 0xb8, 0x5e, 0xae, 0x9e, 0xb5, 
  0x83, 0xb4, 0xf2, 0x39, 0x32, 0x38, 0xaa, 0xb0, 0x33, 0x30, 0xcf, 0xb1, 
  0x7c, 0xb6, 0xc9, 0xb9, 0xed, 0xaf, 0x60, 0xa1, 0xd4, 0xb7, 0x19, 0x35, 
  0xf6, 0xb4, 0x25, 0xb1, 0xe0, 0xb0, 0x01, 0xb9, 0x70, 0x2f, 0xa8, 0x39, 
  0xff, 0xb7, 0xdd, 0xb8, 0xac, 0x34, 0xe0, 0xb4, 0xfb, 0x38, 0x55, 0x37, 
  0x02, 0xa8, 0xb4, 0x37, 0xd3, 0xb3, 0x1a, 0xb3, 0x5b, 0x36, 0x2c, 0xb6, 
  0x37, 0xb5, 0x1e, 0x3a, 0x4e, 0xb1, 0x1f, 0x9e, 0x35, 0x29, 0xf4, 0x9d, 
  0x84, 0xb0, 0xc9, 0xaf, 0xfb, 0xb8, 0x58, 0x35, 0xf1, 0xaf, 0xec, 0x36, 
  0x2a, 0x38, 0xaa, 0xae, 0x14, 0x34, 0xf4, 0x38, 0x4c, 0xac, 0x42, 0x38, 
  0xa1, 0xb3, 0x29, 0xb7, 0x17, 0x37, 0x68, 0x37, 0xeb, 0xb7, 0x81, 0xa6, 
  0x5f, 0xb2, 0x1e, 0xb6, 0xec, 0x32, 0x28, 0x38, 0xd4, 0xaf, 0x80, 0x37, 
  0x89, 0xb6, 0xc5, 0xba, 0x19, 0xb4, 0x91, 0x2c, 0x4a, 0xad, 0x04, 0x34, 
  0x0d, 0x2e, 0xd4, 0xa9, 0x46, 0x28, 0x46, 0xb8, 0x39, 0xbb, 0x89, 0xb6, 
  0x54, 0x35, 0xb9, 0x35, 0xa8, 0x34, 0xc5, 0x3a, 0x1f, 0xb5, 0x10, 0x34, 
  0xca, 0x2d, 0xf9, 0xb5, 0x8c, 0xb5, 0xaa, 0xb6, 0xb8, 0xb9, 0xec, 0x34, 
  0x07, 0xbb, 0x97, 0xb2, 0x41, 0x1e, 0x7c, 0x2e, 0x0e, 0xb8, 0x53, 0xb8, 
  0x94, 0x36, 0x41, 0x31, 0x01, 0xb9, 0x7d, 0x39, 0x1b, 0x39, 0x9c, 0x34, 
  0x58, 0x39, 0x0d, 0x3a, 0x08, 0xb5, 0x3f, 0x2c, 0xaf, 0x35, 0xec, 0x31, 
  0x01, 0xb5, 0x75, 0x29, 0xb1, 0xb7, 0x82, 0x37, 0x32, 0x37, 0x83, 0x3a, 
  0x2b, 0x38, 0x20, 0xb3, 0x86, 0x25, 0x8a, 0xb8, 0x72, 0xb7, 0x5e, 0xb4, 
  0x85, 0x30, 0x0a, 0x3a, 0x00, 0x37, 0x79, 0x36, 0x10, 0xb8, 0xb5, 0x35, 
  0xde, 0xb0, 0x13, 0x34, 0x05, 0xb2, 0xdb, 0xb1, 0x75, 0xbc, 0x10, 0xba, 
  0xe6, 0x35, 0x50, 0x2e, 0xe9, 0x33, 0x68, 0xb9, 0x6d, 0x37, 0x5d, 0xb6, 
  0xbe, 0x2c, 0xa0, 0x38, 0xa2, 0xb5, 0x8d, 0xb7, 0xb8, 0x2e, 0x51, 0xb9, 
  0x21, 0x38, 0x7f, 0x38, 0x4e, 0xb5, 0xf9, 0x38, 0x1b, 0xad, 0x22, 0x34, 
  0x0e, 0x35, 0x19, 0xa9, 0x72, 0xba, 0x3b, 0xb8, 0xf6, 0xb0, 0xad, 0x35, 
  0x62, 0x34, 0x91, 0xb6, 0x28, 0xb6, 0xb6, 0xb5, 0x26, 0x35, 0xf9, 0x2f, 
  0x23, 0xb4, 0xbe, 0xac, 0x7d, 0x33, 0x6a, 0xb6, 0x4a, 0x31, 0xbb, 0x26, 
  0xc3, 0xb9, 0x5d, 0xba, 0x95, 0x31, 0x05, 0xb2, 0x4b, 0xb6, 0xb2, 0x34, 
  0x6e, 0xb7, 0x73, 0x38, 0x53, 0x34, 0xf7, 0xa5, 0x8b, 0xb4, 0xad, 0xb7, 
  0x7a, 0xb7, 0xbc, 0x2f, 0xed, 0x37, 0x71, 0x2f, 0xed, 0xaa, 0xfb, 0xb2, 
  0x0a, 0x33, 0x5e, 0xba, 0xf6, 0x31, 0x24, 0x35, 0x23, 0xb4, 0x8c, 0xb5, 
  0xbe, 0xb6, 0x88, 0x38, 0x8c, 0xa5, 0x48, 0x21, 0x7e, 0xb3, 0x94, 0xb0, 
  0x0b, 0xb4, 0x36, 0xb7, 0xa7, 0x30, 0x63, 0xb4, 0xaa, 0xb8, 0x59, 0x36, 
  0xcc, 0x2f, 0xe6, 0x34, 0xd3, 0xa9, 0x71, 0x34, 0x00, 0xb2, 0x80, 0x2f, 
  0x5b, 0x38, 0x19, 0xb2, 0x6c, 0x38, 0x5f, 0x38, 0x4a, 0x37, 0xfd, 0xb4, 
  0x0d, 0x3a, 0xd0, 0x9c, 0x97, 0x38, 0x45, 0xb5, 0x4d, 0x2d, 0xd6, 0xa8, 
  0x17, 0xad, 0x6a, 0xb7, 0xb9, 0xba, 0xcf, 0x2f, 0xe7, 0x26, 0xa7, 0xb5, 
  0xd0, 0xb8, 0x41, 0xa4, 0x36, 0xba, 0x11, 0xb4, 0xb7, 0xb6, 0xb0, 0x31, 
  0x71, 0x34, 0x56, 0x34, 0x96, 0xb0, 0x9c, 0x34, 0xc9, 0xac, 0x38, 0x37, 
  0xa8, 0xb8, 0x41, 0x2c, 0xeb, 0x37, 0x4e, 0xba, 0xb6, 0xb3, 0x80, 0x33, 
  0xe3, 0xb7, 0xb4, 0x1f, 0xc0, 0x38, 0x81, 0xb6, 0x98, 0xb2, 0x9d, 0xb3, 
  0xf4, 0xab, 0xfc, 0xb1, 0x18, 0x35, 0x6c, 0x3a, 0x15, 0xb6, 0x2c, 0xb8, 
  0x5c, 0x35, 0xa6, 0xb1, 0xa9, 0x31, 0x4f, 0x35, 0x02, 0x30, 0x66, 0x38, 
  0x05, 0xb7, 0x77, 0x38, 0x28, 0xae, 0x1e, 0x31, 0x91, 0x9b, 0xc5, 0xb4, 
  0xd9, 0x2c, 0x88, 0xb6, 0x22, 0xb3, 0x04, 0x3a, 0xde, 0xb5, 0xac, 0x38, 
  0x90, 0x34, 0x1a, 0xb2, 0x4c, 0x33, 0xf5, 0xbb, 0x08, 0xb4, 0x1d, 0x3a, 
  0xa7, 0xa2, 0x91, 0x36, 0xbd, 0x37, 0xed, 0xb1, 0x16, 0xb5, 0x0c, 0xb2, 
  0xab, 0xb8, 0x04, 0xb1, 0x93, 0x3a, 0xc8, 0x35, 0x62, 0x30, 0xc4, 0xb3, 
  0xbc, 0x30, 0xfc, 0x39, 0x7f, 0xb2, 0xe0, 0x20, 0xd9, 0xb1, 0x46, 0x33, 
  0x84, 0xb6, 0x74, 0x37, 0xa7, 0xaf, 0xb7, 0xb3, 0xf3, 0xac, 0xab, 0xb8, 
  0xaf, 0x38, 0xa2, 0xb6, 0x34, 0xb2, 0xa0, 0xb1, 0x25, 0x38, 0xc5, 0x2d, 
  0x64, 0x32, 0xf0, 0x37, 0x1d, 0xac, 0xc5, 0xbb, 0x92, 0xae, 0xe0, 0x35, 
  0x9d, 0x1b, 0xbe, 0x36, 0xab, 0xaf, 0xe8, 0xb8, 0x16, 0xb8, 0xb1, 0x34, 
  0xb6, 0xb4, 0x40, 0xb8, 0x05, 0x21, 0xf8, 0xb5, 0x7d, 0x32, 0xce, 0x36, 
  0x60, 0x38, 0x7d, 0x34, 0xf5, 0x39, 0xf7, 0xb4, 0x80, 0x36, 0xef, 0x9c, 
  0x9b, 0x37, 0x01, 0xb8, 0x40, 0xb9, 0x83, 0x31, 0xa5, 0xb8, 0xc5, 0x32, 
  0xc1, 0xba, 0x0a, 0xad, 0xd6, 0x35, 0xfc, 0xb1, 0x54, 0xac, 0x57, 0x32, 
  0xca, 0x32, 0x97, 0xb2, 0xe0, 0xb0, 0xe6, 0x36, 0x10, 0x34, 0xce, 0x36, 
  0x0d, 0xb0, 0xe4, 0xb4, 0x27, 0xb4, 0x7a, 0x35, 0xa8, 0xb8, 0x72, 0x3a, 
  0x05, 0x31, 0x18, 0xaf, 0xb5, 0xb7, 0x36, 0x33, 0xef, 0x24, 0x9c, 0x31, 
  0xcf, 0x25, 0x0e, 0xaf, 0xf1, 0xb3, 0x4b, 0xb9, 0xcf, 0x34, 0x07, 0xb2, 
  0xb4, 0x35, 0x38, 0x38, 0x10, 0xb9, 0xfe, 0x34, 0x4d, 0x35, 0x12, 0xae, 
  0x46, 0xb1, 0x1a, 0x2e, 0xa3, 0x33, 0x25, 0x38, 0xfe, 0xb9, 0x8f, 0xb7, 
  0x8b, 0x37, 0x60, 0xb6, 0xce, 0xb3, 0xee, 0xb4, 0x1e, 0xb5, 0x3b, 0x35, 
  0xac, 0x34, 0xc2, 0xbc, 0x07, 0x36, 0x95, 0x34, 0xe4, 0xb0, 0xa5, 0xb7, 
  0x55, 0xb3, 0xd7, 0x35, 0x4e, 0xa6, 0x87, 0x39, 0x0f, 0xb0, 0x83, 0xb8, 
  0x9f, 0x38, 0x98, 0xb8, 0x76, 0x33, 0x76, 0xb5, 0x37, 0x35, 0x49, 0x32, 
  0x5a, 0xb8, 0xd6, 0xb6, 0xb6, 0x35, 0x41, 0x35, 0x5a, 0x39, 0xf0, 0x37, 
  0x6a, 0x3b, 0x3c, 0xb3, 0x02, 0x34, 0x9e, 0x32, 0x40, 0x3a, 0xcd, 0xaa, 
  0xcf, 0xb4, 0x64, 0x1d, 0x6b, 0xb4, 0xd0, 0x37, 0x1a, 0x27, 0xd1, 0xb8, 
  0xb1, 0xb7, 0x1a, 0xb2, 0x75, 0x24, 0x32, 0x34, 0x04, 0xad, 0xe5, 0x2f, 
  0x03, 0x39, 0x29, 0x38, 0x82, 0xba, 0x11, 0x38, 0xf3, 0x34, 0x3d, 0x36, 
  0x18, 0xad, 0x08, 0xb8, 0x26, 0xac, 0xbe, 0xa1, 0xab, 0x38, 0x5e, 0xb6, 
  0x27, 0x30, 0x44, 0x31, 0x99, 0x2d, 0x05, 0xb1, 0xd3, 0x36, 0x03, 0x39, 
  0xf8, 0xb7, 0xb2, 0xbb, 0x82, 0xb7, 0x33, 0x31, 0xbd, 0x1d, 0x22, 0xb4, 
  0x35, 0xb1, 0xe8, 0x34, 0x27, 0xba, 0x7e, 0x31, 0x5a, 0xb4, 0x67, 0x35, 
  0xa0, 0xb4, 0xc1, 0xad, 0x75, 0xb2, 0xb1, 0x2b, 0x66, 0x3a, 0xbc, 0xb7, 
  0xc9, 0xae, 0x9e, 0xb8, 0xa2, 0x35, 0xbc, 0xb9, 0xb5, 0x2a, 0xd9, 0xaf, 
  0x36, 0xb2, 0x4c, 0xb4, 0xb2, 0xb6, 0xc1, 0xb8, 0x52, 0xb4, 0xba, 0xb7, 
  0x5f, 0x3b, 0xc7, 0xb2, 0xf2, 0x39, 0x66, 0xb4, 0x27, 0xb1, 0xd1, 0xb5, 
  0x0a, 0xb4, 0x54, 0x37, 0xc8, 0x2b, 0x86, 0x34, 0xb8, 0xb8, 0xc4, 0xb6, 
  0x6a, 0xb0, 0x82, 0x93, 0x91, 0x34, 0xd3, 0x2f, 0xf2, 0x2b, 0x1a, 0xba, 
  0x42, 0x32, 0xed, 0xba, 0xed, 0xb3, 0x14, 0xb8, 0x20, 0xb6, 0x88, 0x38, 
  0xaf, 0xb5, 0x4c, 0x20, 0x15, 0x34, 0xef, 0xb8, 0x89, 0xb3, 0x5f, 0x34, 
  0x43, 0xb8, 0xd8, 0xb1, 0x06, 0xb6, 0x82, 0xb6, 0xaf, 0xbd, 0x61, 0x39, 
  0x86, 0xb2, 0x4a, 0xa5, 0x9e, 0x2d, 0x0e, 0xbc, 0xc9, 0xb8, 0x25, 0xb8, 
  0xdf, 0xb1, 0xb8, 0xb8, 0x4b, 0x35, 0x69, 0x39, 0x96, 0x34, 0x85, 0xb3, 
  0xf1, 0xb2, 0x8e, 0xb4, 0x1c, 0xba, 0x05, 0x3a, 0x5c, 0x2e, 0x8a, 0xb5, 
  0xec, 0xb5, 0xf2, 0x38, 0x27, 0xb8, 0x69, 0x37, 0x84, 0xb3, 0xec, 0x38, 
  0x2b, 0xb7, 0x70, 0x36, 0x31, 0xa9, 0x15, 0x32, 0x89, 0x38, 0x6f, 0xb5, 
  0x49, 0xb7, 0x6f, 0xb4, 0x66, 0x37, 0x9f, 0x3a, 0x05, 0x30, 0x97, 0x37, 
  0xf6, 0x36, 0x91, 0xb8, 0x2e, 0x31, 0xeb, 0x32, 0x4d, 0xb7, 0x25, 0x32, 
  0x3f, 0x37, 0x78, 0x32, 0x76, 0xba, 0x8d, 0x38, 0x17, 0x39, 0xeb, 0x32, 
  0xac, 0x37, 0x11, 0xa7, 0xed, 0x34, 0x97, 0x38, 0xe9, 0x33, 0x27, 0xb6, 
  0x49, 0xb9, 0xb5, 0xb9, 0x57, 0xb1, 0x7a, 0x36, 0xeb, 0xb0, 0xf2, 0x2e, 
  0x5f, 0x1e, 0x33, 0xb5, 0x1d, 0x2b, 0x33, 0xb2, 0xb5, 0x30, 0xcc, 0x34, 
  0x5a, 0x33, 0xc4, 0xb5, 0x94, 0xb5, 0xe7, 0x38, 0x18, 0x31, 0xfc, 0x2b, 
  0xce, 0x2c, 0x77, 0x33, 0xb8, 0xb5, 0x55, 0x35, 0x0f, 0x2e, 0x76, 0x35, 
  0x53, 0x31, 0x35, 0x35, 0x78, 0xb5, 0x53, 0xb0, 0xc0, 0x31, 0xf1, 0x35, 
  0x2b, 0xb4, 0x85, 0x38, 0xf0, 0xb7, 0x2e, 0x2f, 0x48, 0xa4, 0x1f, 0xbd, 
  0xef, 0xb1, 0xc6, 0x2e, 0xc7, 0x34, 0xd0, 0x34, 0x57, 0xb6, 0x85, 0xad, 
  0x68, 0x32, 0xbb, 0x2c, 0xd1, 0xba, 0x2c, 0x39, 0x8c, 0x35, 0xb2, 0x2e, 
  0x55, 0x38, 0xff, 0x30, 0xff, 0xb6, 0x8c, 0x34, 0xf4, 0xb7, 0x29, 0xb7, 
  0x1c, 0xaa, 0xff, 0xb7, 0x4f, 0x20, 0x2a, 0x37, 0x1c, 0xb2, 0x5d, 0xa3, 
  0xeb, 0xac, 0x07, 0x34, 0x5f, 0x31, 0x78, 0x37, 0x87, 0xaf, 0x4a, 0xbb, 
  0x26, 0xaf, 0xc2, 0x34, 0x04, 0x2e, 0xd5, 0xb6, 0x40, 0x30, 0x96, 0xb5, 
  0xf7, 0xb0, 0xf5, 0x36, 0xb2, 0x33, 0x3e, 0xab, 0xcf, 0x2c, 0x8f, 0xba, 
  0x72, 0xb5, 0xe6, 0x2d, 0x1c, 0x2f, 0xa7, 0xad, 0x26, 0xb4, 0xe1, 0xba, 
  0x59, 0x34, 0x0e, 0x38, 0x2d, 0x34, 0x96, 0xb9, 0x07, 0xb9, 0x18, 0xb4, 
  0x22, 0x34, 0x97, 0x35, 0xe4, 0xb5, 0x83, 0x3a, 0x58, 0x35, 0xe2, 0xb7, 
  0x9b, 0xb8, 0x07, 0xb4, 0x90, 0x9d, 0x89, 0x33, 0x4f, 0xb8, 0x80, 0xb7, 
  0x31, 0xaa, 0x76, 0xad, 0x99, 0xb5, 0x2f, 0xb8, 0xf1, 0xb3, 0x1b, 0x32, 
  0x29, 0x31, 0x90, 0xbb, 0x26, 0xb9, 0x68, 0x37, 0x07, 0xaa, 0x8c, 0x34, 
  0x87, 0xb2, 0xc3, 0xb5, 0x99, 0x38, 0x7f, 0x2e, 0x6f, 0xb6, 0xfe, 0xb5, 
  0x67, 0x36, 0x0b, 0x32, 0x16, 0xbb, 0xc6, 0xb6, 0x23, 0xb7, 0x6b, 0x3a, 
  0xb7, 0xaf, 0x9a, 0x35, 0x69, 0x34, 0x04, 0x39, 0x39, 0x38, 0x55, 0xb8, 
  0x84, 0x32, 0x2e, 0xa5, 0x4e, 0xb6, 0x97, 0x36, 0xf0, 0x37, 0x81, 0xb2, 
  0xe5, 0x34, 0x58, 0x35, 0xe7, 0xa3, 0x05, 0xb4, 0x2a, 0x29, 0xb9, 0xb2, 
  0x35, 0x37, 0x1b, 0xb6, 0x86, 0x31, 0xd1, 0x2d, 0x30, 0xb6, 0x3a, 0x32, 
  0x40, 0xb3, 0xea, 0xab, 0x21, 0xb8, 0xa6, 0x1f, 0xb7, 0xb4, 0x6b, 0xb7, 
  0xb1, 0x34, 0x9d, 0xb4, 0xb8, 0xbb, 0x09, 0xac, 0x3a, 0xb5, 0x3e, 0x34, 
  0xf6, 0xa5, 0x1b, 0xb4, 0x51, 0xb7, 0x30, 0xb9, 0x03, 0x38, 0xf2, 0xb2, 
  0x7f, 0xb9, 0x13, 0xb8, 0xcd, 0xb6, 0x5e, 0xac, 0xd7, 0x3a, 0x87, 0x39, 
  0x89, 0x26, 0x68, 0xb6, 0xfb, 0xb5, 0xa5, 0x2c, 0x71, 0x33, 0xe3, 0xb5, 
  0xbb, 0xb5, 0xe1, 0x36, 0xa3, 0xb7, 0xe9, 0x34, 0xa8, 0x33, 0x23, 0x2e, 
  0x15, 0xb3, 0xd5, 0xb6, 0x32, 0x34, 0xef, 0xba, 0x5b, 0x34, 0x65, 0x38, 
  0x3c, 0xb4, 0x79, 0x2e, 0x1b, 0xad, 0x49, 0xb8, 0x45, 0x36, 0x2d, 0xb5, 
  0x3e, 0xb3, 0x5a, 0x2e, 0x65, 0x3d, 0x41, 0xb7, 0x5d, 0x36, 0x47, 0x36, 
  0xc9, 0xb5, 0x94, 0xb0, 0x33, 0xb8, 0x2b, 0x3a, 0xbc, 0xb2, 0x09, 0x38, 
  0xb6, 0xb7, 0x90, 0x2f, 0x91, 0x30, 0xc9, 0x30, 0x10, 0xba, 0xe9, 0x33, 
  0x4c, 0x34, 0x3e, 0xa2, 0xff, 0x34, 0xa6, 0xb6, 0x04, 0xb4, 0x7b, 0x38, 
  0x3d, 0xa9, 0x2f, 0x39, 0xc0, 0x1d, 0x27, 0x37, 0x5c, 0xb5, 0xfa, 0x31, 
  0xff, 0xb1, 0x36, 0x36, 0xca, 0xb6, 0xa9, 0x35, 0xa9, 0xb9, 0x20, 0x34, 
  0x70, 0x2f, 0x2e, 0xb0, 0xed, 0x35, 0x33, 0x36, 0x26, 0x39, 0xc0, 0x2d, 
  0x4d, 0x30, 0x85, 0x30, 0xd1, 0x24, 0xdb, 0x2d, 0x73, 0xb9, 0xba, 0x33, 
  0x66, 0xba, 0x6f, 0xb4, 0x56, 0x25, 0x36, 0x39, 0x28, 0x3a, 0x48, 0x9f, 
  0xde, 0x35, 0x99, 0xb5, 0x43, 0xaa, 0xa8, 0xb8, 0xe1, 0x36, 0x01, 0xb9, 
  0x8c, 0x23, 0x6b, 0xb8, 0xf0, 0x29, 0x36, 0x35, 0xbe, 0x37, 0xd5, 0xb8, 
  0x6e, 0x17, 0x0a, 0x38, 0x1b, 0xb2, 0xa0, 0x2e, 0xda, 0xad, 0xb1, 0xb2, 
  0x0f, 0x30, 0xe6, 0x38, 0x5f, 0xb4, 0x4f, 0xb6, 0xf8, 0x35, 0x67, 0x33, 
  0x50, 0x35, 0x83, 0x36, 0xad, 0x34, 0xd8, 0xad, 0xb4, 0xa1, 0xb0, 0xaf, 
  0x4e, 0x2c, 0x75, 0x38, 0x32, 0x39, 0x4d, 0x2f, 0x32, 0xba, 0xc4, 0xb7, 
  0x1d, 0x39, 0xa4, 0x2e, 0x72, 0x2c, 0x9a, 0x39, 0x30, 0x33, 0xd9, 0xa8, 
  0xfa, 0x38, 0x57, 0x36, 0xa7, 0xb1, 0x9b, 0xb2, 0x94, 0xae, 0x1a, 0xb7, 
  0xdc, 0xb8, 0x85, 0xba, 0xdd, 0x2b, 0x03, 0x34, 0x6c, 0xb8, 0x42, 0x34, 
  0x01, 0xb7, 0xad, 0xb6, 0x78, 0x34, 0x1e, 0xb5, 0xa6, 0x33, 0x4e, 0xb8, 
  0x9c, 0x32, 0x05, 0xb1, 0xdf, 0xb8, 0x47, 0xb4, 0x69, 0xb6, 0x63, 0x38, 
  0xe0, 0xac, 0xc0, 0x39, 0x43, 0x35, 0x20, 0xb6, 0xb7, 0xb3, 0xff, 0x36, 
  0xf6, 0x2e, 0xa5, 0x39, 0xe2, 0x31, 0x4e, 0xb6, 0x2f, 0xb9, 0xc3, 0xb7, 
  0xc9, 0x37, 0xd3, 0xb8, 0xd0, 0x29, 0xf7, 0xb2, 0x9f, 0xb4, 0xe2, 0x38, 
  0x27, 0xaf, 0x79, 0xb6, 0xbb, 0xb7, 0xa1, 0xaa, 0xa0, 0xb5, 0x68, 0xb4, 
  0xcf, 0xb8, 0x24, 0x3a, 0xe8, 0x35, 0x4b, 0x2d, 0xb1, 0x2a, 0xbe, 0xb8, 
  0x03, 0x31, 0xf6, 0xbb, 0x51, 0x30, 0x79, 0x30, 0x7d, 0x37, 0x15, 0x34, 
  0x71, 0xb1, 0x46, 0xb0, 0x28, 0x33, 0xab, 0x2f, 0x55, 0x36, 0x9d, 0x30, 
  0x24, 0xb6, 0xbc, 0x31, 0x45, 0xb7, 0xea, 0xb4, 0x26, 0xb2, 0x15, 0xbb, 
  0x61, 0xad, 0x76, 0xb8, 0x83, 0x2e, 0x28, 0x32, 0x07, 0x37, 0x5c, 0x17, 
  0xaf, 0x35, 0x31, 0x37, 0x59, 0x3a, 0x84, 0x35, 0x71, 0xb9, 0x37, 0xb4, 
  0x99, 0x38, 0xe0, 0xb7, 0x7b, 0x37, 0x8d, 0x37, 0x16, 0xb3, 0x6c, 0x34, 
  0xdf, 0x30, 0x9c, 0x38, 0x3d, 0xb9, 0x23, 0x2f, 0x9b, 0xaf, 0x46, 0x30, 
  0x95, 0xb5, 0x11, 0x30, 0x8f, 0x30, 0xf4, 0x3c, 0x0c, 0xb4, 0xdf, 0x31, 
  0x40, 0x2a, 0xdc, 0xab, 0x20, 0xa9, 0x0a, 0xb8, 0x13, 0x3a, 0x95, 0x37, 
  0x35, 0x39, 0xc6, 0x30, 0x85, 0xb6, 0x47, 0xb4, 0x79, 0x38, 0xe0, 0xb3, 
  0x22, 0x33, 0x98, 0x35, 0x03, 0x34, 0x58, 0xb8, 0xb3, 0xaf, 0x30, 0xb7, 
  0x18, 0x3c, 0xec, 0xad, 0x40, 0xba, 0xf4, 0x36, 0x96, 0xac, 0x07, 0xbc, 
  0xd0, 0xab, 0x82, 0xb5, 0x0b, 0xb7, 0xa5, 0x19, 0xac, 0x37, 0xe3, 0xa2, 
  0x83, 0xb4, 0xe2, 0x37, 0x97, 0xb7, 0x1d, 0x37, 0x69, 0xb8, 0x09, 0xaf, 
  0x88, 0x33, 0x9a, 0x2d, 0x5b, 0xb2, 0xba, 0x2c, 0xc0, 0xac, 0xe8, 0x38, 
  0x84, 0xb8, 0x9a, 0xbb, 0x4e, 0x35, 0x80, 0x38, 0xe8, 0x35, 0x50, 0x32, 
  0x79, 0x35, 0x02, 0xba, 0x0c, 0xa8, 0x17, 0xbb, 0x39, 0xb5, 0xf2, 0xba, 
  0x0b, 0x33, 0x44, 0xb8, 0x6f, 0x34, 0x85, 0x35, 0xe2, 0xb2, 0x57, 0x31, 
  0xe1, 0xb7, 0x07, 0xa8, 0xca, 0x2a, 0x4b, 0x25, 0x55, 0xa6, 0xb8, 0x3c, 
  0x96, 0xb8, 0x4f, 0x34, 0x42, 0x99, 0xf0, 0xb8, 0xa4, 0xb6, 0xcd, 0xb3, 
  0xed, 0xad, 0xb4, 0xa7, 0xb2, 0xb0, 0x2e, 0x36, 0xfd, 0xaf, 0xc5, 0x35, 
  0x01, 0xb4, 0x36, 0x39, 0x8f, 0x31, 0x31, 0x37, 0x39, 0xb2, 0x35, 0xb7, 
  0x3a, 0xb6, 0xc6, 0x36, 0xad, 0x39, 0x7a, 0x2d, 0xeb, 0x38, 0x79, 0x37, 
  0x2e, 0xb2, 0x5c, 0xb2, 0x40, 0xb8, 0x30, 0xb0, 0x51, 0x38, 0x66, 0xb3, 
  0xa0, 0xaf, 0x4b, 0x32, 0x4d, 0xb4, 0xad, 0xb7, 0x70, 0xb6, 0x3d, 0xb8, 
  0x31, 0xb4, 0xc3, 0x2c, 0x12, 0x3a, 0x3f, 0xb8, 0xf9, 0xb4, 0xdb, 0x24, 
  0x45, 0x29, 0x83, 0xb7, 0xe0, 0xb7, 0x42, 0x31, 0xc3, 0x35, 0x8f, 0x3a, 
  0xe9, 0x34, 0x66, 0xa5, 0x04, 0x37, 0xd6, 0x31, 0xb8, 0x32, 0x66, 0xb7, 
  0xd6, 0xb4, 0x45, 0x38, 0xe9, 0x30, 0xb1, 0x38, 0x12, 0xb1, 0x86, 0xb4, 
  0x93, 0x34, 0x1b, 0xaf, 0x12, 0x2d, 0x85, 0x28, 0x1f, 0x33, 0x9b, 0xb1, 
  0xd7, 0x28, 0x6f, 0xb5, 0xbf, 0x30, 0x48, 0x30, 0x6f, 0x35, 0xa5, 0xb5, 
  0xe8, 0xa9, 0xc2, 0x37, 0x6d, 0xb9, 0xb4, 0x28, 0x60, 0xb6, 0xe0, 0x39, 
  0x25, 0x35, 0x85, 0x35, 0x2a, 0xb8, 0xd2, 0x35, 0x5e, 0x38, 0x0c, 0x2c, 
  0x8f, 0xb5, 0x6f, 0x39, 0xe4, 0xb9, 0x24, 0x37, 0xa6, 0xb6, 0xa6, 0xb6, 
  0x48, 0xb9, 0x4d, 0xb7, 0x70, 0x36, 0xc0, 0x38, 0x2d, 0xb9, 0x19, 0xb8, 
  0xee, 0xa8, 0x3e, 0x30, 0x4f, 0xb1, 0xe4, 0x37, 0x09, 0xb9, 0x04, 0x35, 
  0xff, 0x31, 0x47, 0x31, 0xd8, 0xb5, 0xbd, 0x38, 0x2b, 0x32, 0x02, 0xb8, 
  0xdc, 0xb6, 0x5b, 0x36, 0x96, 0xaf, 0x63, 0x2e, 0xaa, 0xb6, 0xc3, 0xba, 
  0x70, 0x36, 0xfb, 0x38, 0xbf, 0x35, 0xd1, 0x2b, 0xd1, 0x2c, 0x8c, 0xb3, 
  0xa0, 0x2d, 0x13, 0xae, 0xaf, 0x36, 0x77, 0xb2, 0x0b, 0xae, 0xe5, 0xb3, 
  0x92, 0xb4, 0xfa, 0xbc, 0x4a, 0xb2, 0x76, 0xb7, 0x4b, 0x28, 0xa9, 0xb2, 
  0x26, 0xb2, 0x69, 0xb8, 0x3c, 0x34, 0x46, 0xb5, 0x9d, 0xae, 0xc7, 0xa3, 
  0xe7, 0x39, 0x38, 0x31, 0x64, 0x23, 0x9d, 0x32, 0x7f, 0x38, 0xb5, 0x3a, 
  0xfb, 0xb9, 0x2b, 0x3a, 0xa8, 0x36, 0x72, 0xb2, 0x7c, 0x3a, 0xfd, 0x23, 
  0x7f, 0xad, 0xb6, 0xaf, 0x6d, 0xb7, 0x0e, 0xb0, 0x78, 0x3b, 0xb9, 0xb4, 
  0x89, 0xb7, 0xe0, 0x37, 0x76, 0x34, 0xfa, 0x3a, 0xb2, 0xb4, 0x4f, 0x38, 
  0x18, 0x30, 0x28, 0x37, 0xb3, 0xae, 0xd0, 0x38, 0x4c, 0xbb, 0xc5, 0xb7, 
  0xc7, 0x32, 0xa8, 0xb7, 0xad, 0x39, 0x49, 0x31, 0x9c, 0x3a, 0x3b, 0xb8, 
  0x97, 0xb1, 0xa2, 0xb8, 0xea, 0xb4, 0xba, 0x31, 0xa8, 0x38, 0x54, 0x2d, 
  0xd3, 0x37, 0xc9, 0xb5, 0x17, 0xb1, 0x61, 0xb0, 0x18, 0x2d, 0x49, 0xba, 
  0x2c, 0x30, 0xff, 0xb5, 0x42, 0xb4, 0xe7, 0xb4, 0x83, 0x33, 0x3a, 0xb8, 
  0x0f, 0xb4, 0x29, 0xb6, 0xb2, 0x34, 0x00, 0xae, 0x48, 0x38, 0x52, 0xb0, 
  0x22, 0x14, 0x51, 0x33, 0xc6, 0x37, 0x0e, 0x38, 0x3e, 0xb2, 0x43, 0xb6, 
  0x75, 0xb8, 0x45, 0xb5, 0xa8, 0xa1, 0x6a, 0x33, 0x1c, 0x36, 0x76, 0x35, 
  0x01, 0x38, 0xe0, 0x32, 0x92, 0xb4, 0xc1, 0xb1, 0x4a, 0xb7, 0x0b, 0x38, 
  0xfb, 0xb7, 0x4f, 0x34, 0x7f, 0x2d, 0x97, 0x34, 0xd9, 0xb9, 0x8f, 0xb5, 
  0x44, 0xb6, 0xc6, 0xbb, 0xea, 0xb8, 0x6d, 0xac, 0x52, 0xb9, 0x88, 0x36, 
  0x31, 0xb6, 0xf8, 0x28, 0x30, 0x30, 0x89, 0xb9, 0x91, 0x38, 0x76, 0x38, 
  0xe6, 0x29, 0x5b, 0xb9, 0x34, 0xb4, 0x11, 0xab, 0x06, 0xb9, 0x66, 0xb9, 
  0x62, 0x38, 0x2f, 0x2f, 0xcd, 0xa8, 0xb1, 0x2e, 0xcf, 0x37, 0xac, 0x35, 
  0xc4, 0xb2, 0x69, 0x35, 0x5d, 0x34, 0xe8, 0x33, 0x5a, 0xbc, 0x2f, 0x34, 
  0x98, 0x27, 0xf8, 0x31, 0xcd, 0x34, 0xf4, 0x3e, 0xdd, 0xb7, 0x5f, 0x34, 
  0x23, 0x2e, 0x25, 0xaf, 0x65, 0x32, 0x0b, 0xb9, 0xfd, 0x35, 0x06, 0xad, 
  0x59, 0x31, 0x5c, 0x33, 0x59, 0xb7, 0x9d, 0x38, 0x44, 0x35, 0x5e, 0xb5, 
  0x03, 0xb0, 0x17, 0x3b, 0xba, 0xb4, 0xbe, 0x39, 0xcf, 0xb6, 0xd1, 0x38, 
  0xaa, 0xb4, 0x08, 0x32, 0x10, 0xb3, 0xad, 0xb5, 0x80, 0xb0, 0x6c, 0xac, 
  0xf2, 0xb3, 0x77, 0xb8, 0x63, 0xb3, 0xce, 0xb3, 0x3a, 0x2f, 0x73, 0x3c, 
  0x01, 0xb0, 0xf5, 0x90, 0xe5, 0x9c, 0xd0, 0x33, 0x7e, 0x2c, 0x99, 0x35, 
  0x6e, 0x38, 0xc9, 0xb6, 0x6d, 0xb9, 0x63, 0xaf, 0x99, 0x38, 0xaf, 0xb5, 
  0x42, 0xb5, 0x6d, 0x2e, 0xb7, 0x30, 0x9a, 0xb5, 0x7d, 0xb5, 0xad, 0x24, 
  0x61, 0xb3, 0x76, 0x3a, 0xb6, 0x35, 0x2c, 0x35, 0x10, 0x34, 0x88, 0xb4, 
  0xd3, 0x35, 0x16, 0x33, 0x53, 0x99, 0x41, 0x31, 0x1a, 0xb5, 0x2a, 0xb7, 
  0x0c, 0x21, 0xe2, 0x2d, 0x44, 0xb5, 0x6d, 0xb4, 0x84, 0x39, 0x89, 0x37, 
  0xf6, 0xb8, 0xd8, 0xb5, 0x5f, 0x36, 0xef, 0x1f, 0xda, 0x29, 0xa4, 0x38, 
  0x0e, 0xa3, 0x05, 0x32, 0xed, 0x32, 0xb8, 0xb7, 0xf8, 0x34, 0x81, 0xaf, 
  0x39, 0xb7, 0x75, 0x38, 0xe0, 0x30, 0xfe, 0x28, 0xe9, 0x31, 0x6f, 0x23, 
  0x23, 0xb0, 0x5f, 0x37, 0x60, 0x3a, 0x24, 0x2d, 0x62, 0x38, 0xef, 0xb8, 
  0x43, 0x2f, 0xf4, 0x38, 0xb3, 0x33, 0xca, 0xb6, 0x70, 0x35, 0xd8, 0x29, 
  0xd0, 0x29, 0xb9, 0x34, 0xdb, 0xb6, 0x93, 0x30, 0x22, 0x38, 0x8d, 0xaf, 
  0xa2, 0x3a, 0xb3, 0x39, 0x26, 0x36, 0x31, 0xb9, 0x11, 0x38, 0x98, 0xb7, 
  0x32, 0x34, 0x8e, 0xa7, 0xf9, 0xb5, 0xcf, 0xb6, 0x08, 0xb5, 0x43, 0x39, 
  0xba, 0xb5, 0xff, 0x30, 0xed, 0xb8, 0x78, 0xad, 0x32, 0x36, 0xcb, 0x2d, 
  0x34, 0x3a, 0xea, 0xaf, 0x70, 0xad, 0x41, 0x33, 0xd3, 0x32, 0x8d, 0xad, 
  0x1b, 0x31, 0x01, 0x27, 0x53, 0x2e, 0xde, 0xb4, 0x53, 0x2f, 0xe7, 0x38, 
  0xcc, 0x35, 0xd1, 0xb8, 0xe7, 0x32, 0x62, 0xb3, 0x6a, 0x39, 0xd1, 0x37, 
  0x4e, 0x36, 0xa5, 0x35, 0xcb, 0x2b, 0x91, 0x2e, 0x52, 0xa7, 0x31, 0xb7, 
  0x6d, 0x31, 0xc8, 0x2e, 0x64, 0x37, 0x41, 0xb3, 0xb5, 0x37, 0xe5, 0xb1, 
  0x68, 0x38, 0x40, 0x30, 0xd3, 0x37, 0x2a, 0xb5, 0xcb, 0xb7, 0x09, 0xab, 
  0x67, 0x27, 0xbb, 0xb8, 0xd4, 0x37, 0x77, 0x39, 0xac, 0x33, 0x68, 0xb4, 
  0xd5, 0xb3, 0x6f, 0xac, 0x89, 0x98, 0x37, 0xb8, 0x81, 0xb0, 0x4d, 0xb7, 
  0x2c, 0xb4, 0x28, 0xb5, 0x9f, 0x3b, 0x8f, 0xb7, 0x99, 0x32, 0x5a, 0x38, 
  0x0b, 0xb6, 0xc4, 0x34, 0x06, 0x38, 0x4c, 0x3c, 0x45, 0xb6, 0xe6, 0x3a, 
  0x33, 0x34, 0x2c, 0x35, 0xf4, 0xb6, 0xe3, 0xb5, 0x7e, 0x35, 0xe3, 0xae, 
  0x1b, 0x26, 0xd9, 0xb4, 0x5d, 0x34, 0x1c, 0xb4, 0xed, 0x34, 0xa1, 0xb3, 
  0x1a, 0x34, 0xbf, 0x30, 0x83, 0xb4, 0x19, 0x37, 0xc0, 0x9e, 0x8e, 0x35, 
  0x3a, 0x28, 0xf0, 0xb6, 0x60, 0x2d, 0xc0, 0x2a, 0x99, 0xab, 0x8a, 0x36, 
  0x32, 0xa6, 0xb5, 0xb4, 0x8a, 0xb8, 0xbd, 0x28, 0x0f, 0x39, 0x2e, 0x36, 
  0x56, 0x36, 0x62, 0xb2, 0x64, 0xb7, 0xd6, 0xb2, 0x15, 0x35, 0x57, 0xaa, 
  0xa7, 0x32, 0x29, 0xba, 0xcb, 0xa9, 0x5c, 0x31, 0x22, 0xb3, 0x79, 0x35, 
  0x18, 0x37, 0x5d, 0x2d, 0x4a, 0x37, 0xd5, 0x2e, 0xcc, 0xb9, 0x90, 0x2e, 
  0x29, 0x38, 0x21, 0xae, 0xfe, 0xb7, 0xc2, 0xaa, 0xb9, 0xb4, 0x76, 0xb9, 
  0x7e, 0x36, 0x59, 0xb5, 0xdb, 0x38, 0xbe, 0x35, 0xe1, 0x39, 0x38, 0x3d, 
  0x3c, 0x1e, 0x2e, 0x37, 0x90, 0x31, 0xbf, 0x34, 0x62, 0x3b, 0x29, 0x36, 
  0x41, 0xb1, 0x70, 0x37, 0x9d, 0x3a, 0x86, 0x37, 0x35, 0x34, 0x10, 0x33, 
  0xf8, 0xb6, 0xea, 0x36, 0x5a, 0xa3, 0xdb, 0x28, 0x1e, 0x2a, 0x00, 0xb9, 
  0x2b, 0xb1, 0x99, 0x3c, 0x0c, 0xb0, 0x48, 0x32, 0x6c, 0x39, 0xe7, 0x37, 
  0xfe, 0x32, 0x99, 0x35, 0x62, 0xb2, 0xba, 0x36, 0x23, 0x2d, 0x0c, 0xbc, 
  0xe1, 0xb8, 0xda, 0x37, 0xba, 0x34, 0xb3, 0xb3, 0x24, 0xa8, 0x06, 0xb3, 
  0x2f, 0xb8, 0x51, 0xaf, 0x01, 0x2c, 0xac, 0xb7, 0x9b, 0xb5, 0x79, 0x38, 
  0x4d, 0x34, 0x8e, 0x34, 0x77, 0x2a, 0x7e, 0x32, 0x6d, 0xb4, 0x05, 0x37, 
  0x01, 0xb5, 0x88, 0xb5, 0xeb, 0xb1, 0x8f, 0xb5, 0xa4, 0xb8, 0x94, 0xb8, 
  0x6d, 0xaa, 0x5d, 0x31, 0x22, 0x2a, 0x3b, 0x1d, 0x51, 0x32, 0xba, 0xb2, 
  0x9b, 0x38, 0x75, 0x3c, 0x76, 0x28, 0xca, 0x32, 0x4f, 0x30, 0xfd, 0xbb, 
  0x0b, 0xb3, 0x8f, 0x35, 0x12, 0xb5, 0xc0, 0x37, 0xf3, 0xb2, 0xe0, 0xac, 
  0x1c, 0x36, 0x10, 0x38, 0xd1, 0x30, 0xea, 0x34, 0x29, 0xa8, 0x7c, 0xb0, 
  0x52, 0xb2, 0x6b, 0x38, 0x2a, 0xae, 0xa0, 0xb3, 0x76, 0xaf, 0x04, 0x31, 
  0x1c, 0x32, 0x17, 0x36, 0x42, 0x36, 0xf2, 0x28, 0x7d, 0xb2, 0x92, 0x34, 
  0xd3, 0x35, 0x66, 0x36, 0xcd, 0xb2, 0xe2, 0x37, 0xe7, 0x39, 0x63, 0xa8, 
  0x98, 0xb7, 0x19, 0x36, 0xf3, 0x34, 0x1c, 0x38, 0xb2, 0x33, 0x92, 0x35, 
  0x51, 0x32, 0x22, 0xb8, 0x12, 0x39, 0x6b, 0x37, 0x3a, 0xba, 0xe8, 0x2d, 
  0xab, 0x2f, 0xc2, 0xba, 0x07, 0x35, 0x4b, 0x30, 0x3e, 0x39, 0x41, 0xaa, 
  0xf0, 0xb1, 0x4a, 0xb3, 0xed, 0xb4, 0x0e, 0x37, 0x98, 0xb2, 0x22, 0xb9, 
  0x27, 0xb0, 0x92, 0x32, 0xa8, 0x38, 0xd7, 0xba, 0x39, 0xb6, 0xb9, 0xb9, 
  0x89, 0x2b, 0x94, 0x35, 0x3f, 0xae, 0xd2, 0x32, 0x19, 0xb6, 0x7a, 0x34, 
  0x77, 0x38, 0x58, 0xb4, 0x36, 0xb4, 0xe9, 0xa3, 0x7b, 0x3f, 0x01, 0xb6, 
  0x77, 0xb6, 0x1d, 0xb4, 0xbb, 0xb0, 0x0f, 0x3e, 0x62, 0x26, 0xc6, 0xb6, 
  0x04, 0xa7, 0xa6, 0xb1, 0xd0, 0xb1, 0x43, 0xb9, 0x5b, 0xb3, 0x4b, 0xb6, 
  0xd4, 0x35, 0xd6, 0xb0, 0xa6, 0x37, 0xa0, 0xb8, 0xa3, 0xb4, 0xa5, 0x29, 
  0x81, 0x34, 0x2d, 0x39, 0xef, 0x38, 0xb6, 0x30, 0x74, 0xb4, 0xdb, 0x36, 
  0x48, 0xb8, 0xa0, 0x35, 0x80, 0x3a, 0x49, 0x34, 0x48, 0xb6, 0xea, 0xb4, 
  0x7c, 0xb8, 0xb5, 0x38, 0x22, 0x38, 0x52, 0xb9, 0x17, 0x37, 0xff, 0x3b, 
  0x26, 0x37, 0x5f, 0x2a, 0x0b, 0xae, 0x87, 0x34, 0x73, 0x36, 0xf0, 0xb0, 
  0x30, 0x2e, 0xb4, 0xb9, 0x90, 0x36, 0x7f, 0xac, 0xc5, 0xb7, 0xc5, 0x3a, 
  0x9a, 0xb6, 0x70, 0xb2, 0xcb, 0x37, 0x45, 0xb6, 0x7a, 0xb3, 0x12, 0xb8, 
  0x07, 0x26, 0x8e, 0x3c, 0x73, 0x2c, 0x3a, 0xb8, 0x26, 0xb6, 0x77, 0x31, 
  0xe5, 0x36, 0xf3, 0x37, 0xc7, 0x34, 0x49, 0xba, 0xbc, 0x34, 0xb8, 0x2d, 
  0x76, 0x33, 0xb2, 0xac, 0xc4, 0xb4, 0x99, 0xb6, 0x1f, 0x37, 0x86, 0xb1, 
  0xe4, 0x33, 0x1b, 0x30, 0x43, 0x2c, 0xee, 0xb6, 0x75, 0xb4, 0x4b, 0xb8, 
  0x92, 0xa0, 0x53, 0xa7, 0x78, 0x38, 0x77, 0x31, 0xe4, 0xa8, 0xae, 0xb8, 
  0xc3, 0x38, 0xe4, 0xa8, 0xa2, 0xb6, 0x28, 0xa5, 0x2b, 0x2b, 0x2c, 0x3c, 
  0x25, 0x36, 0x2e, 0xb6, 0xc2, 0xbb, 0xe2, 0xb1, 0x38, 0x38, 0x5d, 0x32, 
  0x5c, 0xb8, 0xe2, 0x2d, 0x93, 0x3b, 0x49, 0xab, 0xdf, 0xb5, 0xc4, 0xb3, 
  0xa5, 0xb8, 0xc1, 0xb2, 0xdf, 0x36, 0x16, 0x34, 0xba, 0xae, 0x62, 0xb5, 
  0xaf, 0x2e, 0x4f, 0xbb, 0xbb, 0xb5, 0x36, 0xb2, 0xb1, 0xb5, 0xbf, 0x2f, 
  0x8c, 0x29, 0x99, 0x35, 0x49, 0x32, 0x72, 0xb6, 0xca, 0x34, 0xc8, 0xb9, 
  0x45, 0x35, 0x9b, 0x30, 0xe0, 0xb4, 0x12, 0xba, 0x79, 0x33, 0xe3, 0x1f, 
  0xbd, 0xba, 0x97, 0x31, 0x01, 0xb7, 0xe8, 0x30, 0x68, 0xb0, 0x56, 0x2c, 
  0x1b, 0xb4, 0x06, 0xbb, 0x4f, 0xaa, 0x9e, 0x3a, 0x54, 0xaa, 0x01, 0xa8, 
  0xd4, 0xb4, 0x05, 0x3c, 0xa2, 0xaf, 0x9b, 0x2d, 0x6b, 0x31, 0x0b, 0x38, 
  0x40, 0xb1, 0x87, 0x35, 0xa8, 0x36, 0x81, 0xb3, 0x2a, 0x2e, 0x23, 0x2f, 
  0x27, 0x37, 0x5a, 0xb6, 0xe8, 0xae, 0x01, 0xb3, 0x93, 0xb4, 0xf8, 0x33, 
  0x29, 0xb7, 0x9d, 0xb1, 0x0a, 0x30, 0x0c, 0xb3, 0x7f, 0x2f, 0x36, 0xb0, 
  0x45, 0x33, 0x78, 0x37, 0xcc, 0xb5, 0xb1, 0x33, 0xd3, 0x35, 0xd7, 0x2c, 
  0x39, 0xb4, 0x4e, 0xb7, 0x26, 0x38, 0x0c, 0xaa, 0xe4, 0xa8, 0x4d, 0x38, 
  0x9b, 0xb2, 0x4a, 0xbc, 0xef, 0x3c, 0xc1, 0xae, 0xc6, 0xb8, 0xa2, 0x3b, 
  0x03, 0x35, 0xfb, 0xaf, 0x8b, 0xb4, 0x41, 0xb1, 0x98, 0xb2, 0x26, 0xb6, 
  0x74, 0xb7, 0xdf, 0x2c, 0x8c, 0xb7, 0x04, 0xb5, 0x2d, 0xb6, 0x1a, 0x34, 
  0x46, 0xb0, 0xaf, 0xaf, 0x7f, 0xb4, 0xb9, 0x34, 0x38, 0x28, 0xda, 0xb8, 
  0x00, 0x2e, 0x04, 0x35, 0x07, 0x34, 0xe0, 0x34, 0xc7, 0xb6, 0x50, 0xb5, 
  0x9d, 0xb7, 0x1d, 0x2b, 0x83, 0x34, 0x9a, 0xb0, 0x1e, 0x34, 0x17, 0xb7, 
  0x3c, 0xb8, 0x75, 0xb7, 0xb7, 0x2f, 0x44, 0xb1, 0x77, 0xb4, 0x16, 0x2e, 
  0x1c, 0x37, 0x93, 0x39, 0x54, 0x38, 0x57, 0xa7, 0x48, 0xb8, 0x1e, 0xb7, 
  0x14, 0x32, 0x0b, 0x3a, 0xdc, 0x30, 0x7d, 0xb5, 0x34, 0xb4, 0xd6, 0xa0, 
  0xba, 0x30, 0xeb, 0xb5, 0xac, 0x31, 0x9e, 0x32, 0xb3, 0xac, 0x61, 0xb5, 
  0xdf, 0xb2, 0xb7, 0xb9, 0x3d, 0xac, 0x78, 0x36, 0x9a, 0x34, 0x5e, 0x39, 
  0x66, 0xb4, 0xa4, 0x38, 0x21, 0x2f, 0x35, 0xb9, 0x32, 0x35, 0x93, 0x29, 
  0x64, 0xa5, 0x3e, 0x3a, 0x8f, 0x34, 0x2e, 0xb5, 0x71, 0xb2, 0x17, 0x38, 
  0xb1, 0xb6, 0xf9, 0xb7, 0xc7, 0x3b, 0xce, 0x38, 0xb7, 0x1c, 0x83, 0x30, 
  0x99, 0xb4, 0xbc, 0xbc, 0x8b, 0xb4, 0x1e, 0x39, 0x83, 0xaa, 0xaa, 0xa7, 
  0xef, 0xb5, 0xfe, 0xb8, 0x8c, 0xb2, 0xda, 0xb5, 0x73, 0x34, 0x5c, 0xbb, 
  0x35, 0x3a, 0x2c, 0xb7, 0x32, 0xaa, 0x65, 0x35, 0x9d, 0xb5, 0x54, 0xb9, 
  0x12, 0xb7, 0x43, 0xb8, 0xad, 0x28, 0xde, 0xb8, 0xdf, 0x35, 0xa0, 0x35, 
  0x01, 0x3a, 0x1d, 0xb5, 0x9b, 0xb1, 0x6f, 0x35, 0x2c, 0x3a, 0xf9, 0xb8, 
  0xdd, 0xb4, 0x72, 0x38, 0x68, 0x32, 0xb4, 0x34, 0xde, 0xb0, 0xa2, 0xb0, 
  0x96, 0xb8, 0x19, 0xb4, 0x30, 0x35, 0x80, 0x34, 0x5c, 0x39, 0x99, 0xba, 
  0x50, 0x3c, 0xa2, 0x3a, 0x1c, 0x36, 0x3e, 0x3d, 0x75, 0xbb, 0x74, 0x29, 
  0xd1, 0xab, 0x0f, 0xb2, 0xd9, 0xb6, 0x54, 0xb7, 0x62, 0xac, 0x46, 0x3a, 
  0xc3, 0x29, 0x9a, 0xb1, 0x09, 0x25, 0xf3, 0xb7, 0x63, 0x34, 0x30, 0x3a, 
  0x21, 0x2a, 0x5a, 0xb9, 0x1a, 0xb6, 0x61, 0x35, 0xa7, 0xb3, 0x8e, 0xb2, 
  0x36, 0xb7, 0x36, 0xb6, 0xa1, 0x38, 0xd2, 0xa0, 0x85, 0x36, 0x5c, 0x2b, 
  0x93, 0x31, 0x19, 0xaf, 0x93, 0x36, 0xa0, 0x33, 0x2c, 0xb4, 0x31, 0xb4, 
  0x20, 0x36, 0x3b, 0x36, 0xb1, 0x39, 0x7c, 0x31, 0xa0, 0x13, 0x28, 0xae, 
  0x0c, 0xb4, 0x25, 0x29, 0xb8, 0x2d, 0x6d, 0xba, 0xe8, 0xad, 0x64, 0xb0, 
  0xc6, 0x38, 0x40, 0xb0, 0xcc, 0x34, 0x86, 0xba, 0x82, 0x39, 0xaf, 0x30, 
  0x62, 0x31, 0x3a, 0x35, 0x29, 0xb5, 0x8f, 0x25, 0x5e, 0x28, 0x42, 0x36, 
  0xc4, 0xb1, 0x04, 0xac, 0xb4, 0xb2, 0x49, 0x38, 0x5a, 0xaa, 0x12, 0xae, 
  0x85, 0xb2, 0x65, 0xb4, 0x63, 0xad, 0x64, 0xbb, 0xe7, 0xaf, 0xf2, 0x39, 
  0x31, 0x36, 0x8e, 0xba, 0x29, 0xaf, 0xdb, 0x24, 0x2a, 0xb7, 0xd1, 0xb3, 
  0xe9, 0x38, 0x85, 0x39, 0x27, 0x34, 0x50, 0x32, 0xab, 0xac, 0x6c, 0x38, 
  0x44, 0xb1, 0xde, 0x38, 0xde, 0x34, 0xd4, 0x38, 0x2e, 0x34, 0xb1, 0xb8, 
  0xd8, 0x31, 0x1a, 0x38, 0xfb, 0x30, 0x6f, 0xb0, 0xc1, 0x2e, 0xc5, 0x2a, 
  0xe0, 0x25, 0x31, 0xb4, 0x33, 0x35, 0xa1, 0x31, 0x64, 0x28, 0x66, 0x2e, 
  0x31, 0x30, 0xc5, 0x33, 0xcf, 0x36, 0xca, 0x33, 0x03, 0x34, 0x5c, 0xb6, 
  0x50, 0xb1, 0x76, 0xb4, 0x1d, 0xba, 0xf4, 0xac, 0x8b, 0xb1, 0x0e, 0xb3, 
  0x29, 0x38, 0x41, 0x33, 0x8f, 0xb3, 0x78, 0xad, 0x45, 0x96, 0xe1, 0xb8, 
  0x07, 0x37, 0xda, 0xb1, 0xd8, 0x37, 0xfb, 0x30, 0xd6, 0x34, 0x2e, 0xb6, 
  0x6a, 0xb5, 0x15, 0x32, 0x02, 0x39, 0x84, 0xaa, 0xec, 0xb9, 0x34, 0x31, 
  0x0d, 0xba, 0x29, 0xaf, 0x43, 0x35, 0xf5, 0x3a, 0x60, 0x36, 0x14, 0x33, 
  0x56, 0x2f, 0x51, 0x39, 0x7a, 0x31, 0x80, 0x37, 0x14, 0x38, 0xf3, 0x38, 
  0xb6, 0xb5, 0xda, 0x36, 0x0c, 0x38, 0x3e, 0xb9, 0xd7, 0xb3, 0x1e, 0x36, 
  0x4c, 0x30, 0xdd, 0x34, 0xff, 0xb3, 0x8d, 0x38, 0x62, 0x34, 0x91, 0xb5, 
  0xbf, 0xb6, 0xdf, 0x32, 0xbc, 0xb4, 0xd0, 0xb8, 0x61, 0x18, 0x48, 0xb5, 
  0x58, 0x2b, 0xbc, 0x30, 0x68, 0x38, 0x15, 0xb5, 0x5d, 0xb6, 0x4b, 0xb9, 
  0xab, 0x38, 0xba, 0xae, 0xbe, 0xab, 0x00, 0xb5, 0xbd, 0x36, 0xc3, 0x36, 
  0x35, 0xa9, 0x8c, 0x36, 0x0e, 0xb7, 0x5e, 0xaa, 0x37, 0x38, 0x1f, 0xb8, 
  0x48, 0xb4, 0xc2, 0x32, 0x07, 0xb8, 0x4e, 0xb7, 0x7a, 0xb8, 0x15, 0xb6, 
  0x1b, 0xa8, 0xa9, 0x35, 0xb7, 0xb4, 0x30, 0xb0, 0x20, 0xb6, 0x3e, 0xb8, 
  0x04, 0xb0, 0x78, 0xb8, 0x16, 0x36, 0xb7, 0x28, 0x7c, 0x35, 0x81, 0x3b, 
  0x63, 0xb4, 0x42, 0xb5, 0x66, 0xaf, 0x5a, 0x38, 0xd7, 0x2f, 0x1f, 0x36, 
  0x40, 0xb0, 0x41, 0xb3, 0x1d, 0xae, 0xd4, 0xb5, 0xb0, 0x33, 0xfc, 0xb7, 
  0x94, 0x34, 0x61, 0x39, 0xf9, 0xb5, 0xf7, 0xa9, 0x38, 0x34, 0x4f, 0xb6, 
  0x8d, 0xb0, 0xc9, 0x37, 0xef, 0xac, 0x8c, 0x38, 0xdd, 0x36, 0x45, 0xba, 
  0xee, 0x30, 0x15, 0x30, 0x05, 0xb5, 0x41, 0xb5, 0x83, 0xb5, 0xe3, 0xbb, 
  0xf2, 0xb3, 0x7d, 0xab, 0x57, 0xb6, 0x40, 0xb9, 0x31, 0x38, 0x60, 0x25, 
  0x2b, 0x31, 0xac, 0xb4, 0xeb, 0xb8, 0x2c, 0xaf, 0x9d, 0x39, 0x2a, 0x33, 
  0x67, 0x30, 0xbd, 0xb2, 0x7c, 0xb1, 0xc3, 0x33, 0x4e, 0x26, 0x98, 0x37, 
  0x62, 0xb1, 0x3e, 0xa6, 0xfe, 0x1b, 0x6b, 0xb7, 0x21, 0xb3, 0x6e, 0xb3, 
  0x04, 0xb3, 0x33, 0x34, 0xf8, 0xb8, 0x70, 0x39, 0xdd, 0x35, 0xea, 0x3a, 
  0x24, 0xbc, 0x12, 0xb5, 0x0b, 0xbc, 0x78, 0xb1, 0xf6, 0xb5, 0xa0, 0xb8, 
  0xcb, 0xa9, 0x15, 0xb9, 0x49, 0xa4, 0x86, 0xbc, 0x25, 0x34, 0xe5, 0xb8, 
  0x13, 0xa7, 0xfb, 0xa8, 0x5f, 0x37, 0x01, 0x3a, 0x5f, 0x39, 0xda, 0xbc, 
  0x15, 0xb0, 0xfb, 0xb1, 0xf6, 0x34, 0x90, 0xa5, 0x6c, 0xad, 0x83, 0x2c, 
  0xb6, 0xb7, 0xc3, 0xaf, 0x52, 0xb5, 0x4a, 0x9a, 0x73, 0xb4, 0x3a, 0xb1, 
  0x74, 0x36, 0x06, 0x34, 0x57, 0x38, 0xea, 0xb5, 0xa6, 0xb8, 0xf3, 0x39, 
  0xc6, 0xb1, 0xf5, 0x36, 0xc4, 0xb8, 0x09, 0x34, 0x0c, 0xac, 0x98, 0x35, 
  0xb9, 0xb1, 0x11, 0x38, 0x31, 0x36, 0x95, 0x10, 0x75, 0x38, 0xa1, 0x34, 
  0x46, 0x36, 0x47, 0x32, 0xf2, 0xaa, 0x43, 0x32, 0xc7, 0xb5, 0x4d, 0x3a, 
  0x18, 0x36, 0x0b, 0x30, 0x70, 0xba, 0x69, 0x33, 0x46, 0x39, 0x89, 0xb4, 
  0x97, 0x2e, 0x2f, 0xb8, 0x83, 0xae, 0x7a, 0xba, 0xbc, 0xb2, 0xcd, 0xb7, 
  0xae, 0xb1, 0x41, 0x32, 0x4f, 0xa8, 0xa4, 0xb2, 0x7b, 0xb8, 0x1c, 0x39, 
  0x6a, 0xb3, 0x5d, 0xb5, 0x13, 0xb8, 0x19, 0xb5, 0xcb, 0xb8, 0x79, 0x34, 
  0x4d, 0xb1, 0xf1, 0x36, 0x95, 0xb9, 0x9b, 0x30, 0x69, 0xb8, 0xeb, 0xb6, 
  0x6d, 0xac, 0x3f, 0xbc, 0xe2, 0x33, 0x3d, 0xb9, 0x89, 0xa4, 0xe1, 0x38, 
  0x05, 0x34, 0xdc, 0x2e, 0x76, 0x34, 0x94, 0x34, 0x2b, 0x32, 0x3f, 0xae, 
  0x87, 0xbb, 0xde, 0xb6, 0xda, 0xb6, 0xa7, 0x36, 0xeb, 0x28, 0x37, 0x2f, 
  0x40, 0xb4, 0x95, 0x31, 0x64, 0x21, 0xcf, 0x37, 0xbe, 0xb7, 0x6d, 0xb4, 
  0x3f, 0x38, 0xb9, 0x37, 0x11, 0x2f, 0xf6, 0x25, 0x28, 0x38, 0x50, 0x2a, 
  0xf1, 0x31, 0x16, 0xb8, 0x75, 0xb6, 0xd4, 0x30, 0x16, 0x29, 0x69, 0xb5, 
  0x0a, 0x30, 0xa7, 0x29, 0x1f, 0xb4, 0xf7, 0x38, 0x82, 0xae, 0x9c, 0x2e, 
  0x7e, 0xb8, 0x01, 0x38, 0x68, 0xb7, 0xc8, 0xba, 0xb7, 0xb5, 0xdd, 0x2c, 
  0xf1, 0x32, 0x56, 0xb9, 0x25, 0x26, 0xf6, 0xaf, 0xc5, 0xb8, 0x06, 0xbd, 
  0x1f, 0x31, 0x53, 0xaa, 0x97, 0xad, 0xc1, 0xb1, 0x68, 0xb8, 0xda, 0xad, 
  0x6c, 0xb7, 0xac, 0xbb, 0x67, 0x2f, 0x33, 0x33, 0x95, 0x24, 0xa0, 0x35, 
  0x74, 0xad, 0xde, 0xb8, 0xb5, 0x35, 0xe7, 0x32, 0x6a, 0xb5, 0x5a, 0xb0, 
  0x2b, 0x2f, 0x49, 0xb3, 0x4e, 0x34, 0x9f, 0x31, 0xe4, 0xb4, 0x11, 0x32, 
  0xeb, 0x33, 0x71, 0x37, 0xcd, 0xae, 0x8c, 0x27, 0x4e, 0x34, 0xfa, 0xa1, 
  0x42, 0xaf, 0x24, 0xb3, 0xc8, 0xa3, 0x64, 0x32, 0x25, 0xb5, 0xbc, 0x9c, 
  0xbd, 0x34, 0x32, 0x2a, 0x09, 0x35, 0x48, 0xb3, 0x81, 0x35, 0x20, 0xb1, 
  0x21, 0xb3, 0x20, 0xa3, 0x96, 0xb4, 0xf2, 0x33, 0x44, 0xb5, 0x94, 0xb1, 
  0x91, 0x36, 0xd0, 0x33, 0x83, 0xaa, 0x8d, 0xba, 0xab, 0xb7, 0x7f, 0xaa, 
  0x9b, 0xb7, 0x60, 0x37, 0xc0, 0xb4, 0x44, 0xb8, 0x34, 0xb5, 0x0a, 0x39, 
  0xf1, 0xb7, 0xa3, 0xbb, 0x21, 0xb3, 0x16, 0x2d, 0x91, 0x37, 0x88, 0xb6, 
  0x12, 0x33, 0x01, 0x30, 0x1b, 0xb7, 0xe6, 0xb5, 0x3a, 0xb9, 0x05, 0x35, 
  0x51, 0x27, 0xa4, 0xb8, 0xcb, 0x36, 0x0b, 0x39, 0x43, 0xb6, 0x6a, 0x35, 
  0x04, 0xa1, 0x17, 0x3c, 0x68, 0xb5, 0x28, 0xb9, 0x16, 0x34, 0x86, 0xab, 
  0x6c, 0x35, 0x32, 0x35, 0x7a, 0x3a, 0x11, 0x36, 0x4d, 0xb1, 0x64, 0xb5, 
  0x41, 0x38, 0x1d, 0x39, 0x73, 0xb4, 0x1a, 0xb6, 0x4a, 0x38, 0x1b, 0x36, 
  0x1a, 0xb5, 0xbb, 0x33, 0x56, 0x32, 0x1d, 0xb6, 0x62, 0x2c, 0x58, 0x36, 
  0x50, 0xaf, 0xc5, 0xad, 0x91, 0xa6, 0x00, 0xb9, 0x9d, 0xb5, 0x6e, 0xba, 
  0x2c, 0xb4, 0x3c, 0xb5, 0x8b, 0xb5, 0x84, 0xb6, 0xbd, 0xad, 0x37, 0x2a, 
  0x94, 0x25, 0x12, 0x34, 0xdd, 0x38, 0xf3, 0xb7, 0xcc, 0x38, 0x17, 0xb4, 
  0x93, 0x38, 0xce, 0x35, 0x3e, 0x35, 0x7a, 0x31, 0xda, 0x34, 0x60, 0xb8, 
  0x6a, 0xb5, 0x99, 0x30, 0xb6, 0xb5, 0x62, 0xbb, 0xfb, 0x35, 0x0e, 0x34, 
  0xbc, 0x30, 0x3b, 0x30, 0x53, 0x35, 0x7e, 0x39, 0xaf, 0x32, 0xad, 0xb5, 
  0xb9, 0xb5, 0x45, 0xa4, 0x41, 0x31, 0x30, 0xb9, 0xda, 0x2a, 0x9a, 0xb5, 
  0x01, 0x38, 0x0f, 0x34, 0x0d, 0xb1, 0x1f, 0xad, 0x55, 0x30, 0xb4, 0xb8, 
  0xa9, 0x3a, 0xe9, 0xb0, 0x51, 0xae, 0x4e, 0xb6, 0xc0, 0xb5, 0x7c, 0x35, 
  0xb1, 0x38, 0x82, 0x34, 0x62, 0xb4, 0xf9, 0xb4, 0xf7, 0xb0, 0xe7, 0x36, 
  0xed, 0xb1, 0xd2, 0x36, 0xbd, 0x37, 0xe5, 0x25, 0x41, 0x2c, 0x71, 0x34, 
  0x69, 0xb4, 0xb9, 0x37, 0xbf, 0x3a, 0x74, 0xbc, 0x50, 0xaf, 0xe7, 0xab, 
  0x1f, 0xb8, 0x13, 0x36, 0x24, 0xaf, 0x84, 0x37, 0x45, 0x31, 0xc0, 0xba, 
  0xee, 0x38, 0x9c, 0x30, 0xec, 0x34, 0xdc, 0x36, 0x28, 0x38, 0x9b, 0xbb, 
  0x16, 0xb7, 0x62, 0x37, 0x39, 0x35, 0xc4, 0xb8, 0x84, 0x30, 0x2f, 0x34, 
  0xab, 0x38, 0x42, 0xb9, 0xa9, 0x30, 0x8c, 0x2e, 0x59, 0x2c, 0x34, 0xb1, 
  0x97, 0x3d, 0xd3, 0xba, 0x4d, 0x36, 0x90, 0xab, 0xa6, 0xad, 0x3f, 0x37, 
  0xa0, 0x37, 0xd1, 0xb9, 0x1a, 0x31, 0x7f, 0xaf, 0xfd, 0xb1, 0x45, 0xb8, 
  0x56, 0xb4, 0x27, 0x38, 0xbf, 0x29, 0xb2, 0xb7, 0x94, 0xb7, 0xf2, 0xb8, 
  0x71, 0x36, 0x73, 0xb2, 0x79, 0x31, 0x54, 0x35, 0xd8, 0x3a, 0xa5, 0xb8, 
  0x00, 0x37, 0xeb, 0xb6, 0x1c, 0xb0, 0x59, 0xae, 0x2e, 0xb8, 0x2c, 0x38, 
  0x72, 0x36, 0x8b, 0x2e, 0xa4, 0x38, 0x5c, 0xb4, 0x08, 0x28, 0x2f, 0xb8, 
  0x4c, 0xaf, 0x36, 0x3b, 0xb1, 0x2e, 0xe9, 0x38, 0x9b, 0x32, 0xe8, 0xb5, 
  0x9e, 0x37, 0x6b, 0xb1, 0xd6, 0x39, 0x62, 0xb3, 0x60, 0xb9, 0x5f, 0x33, 
  0x5c, 0x34, 0x56, 0xb5, 0xb3, 0x3b, 0x99, 0x34, 0x47, 0x38, 0x62, 0x33, 
  0xb9, 0xaf, 0xfb, 0xb6, 0x7a, 0xa9, 0x92, 0xb3, 0x49, 0x33, 0x40, 0x33, 
  0x55, 0x35, 0x50, 0x38, 0xa8, 0xb4, 0xf3, 0xb8, 0x43, 0x39, 0xfc, 0x38, 
  0x7c, 0xb4, 0xd3, 0x32, 0xb8, 0x31, 0x4a, 0x37, 0xc4, 0xb6, 0x11, 0x39, 
  0x29, 0xb3, 0x68, 0x19, 0x2f, 0x32, 0x5b, 0x31, 0xde, 0xa4, 0x6f, 0x33, 
  0x48, 0x38, 0x62, 0xb5, 0xa0, 0x34, 0xaa, 0x26, 0xaa, 0x3a, 0x66, 0xb6, 
  0xa8, 0x29, 0xf5, 0x37, 0x8c, 0xb8, 0xf4, 0xa7, 0x3c, 0xb7, 0x9c, 0xb4, 
  0xdf, 0xb4, 0xfc, 0xb5, 0x13, 0xb3, 0x1f, 0x2e, 0xbf, 0x31, 0xfd, 0x38, 
  0x9e, 0xb8, 0x4d, 0xb0, 0x24, 0x35, 0x0b, 0x30, 0xa8, 0xb6, 0x5e, 0x35, 
  0x18, 0xaf, 0x01, 0x36, 0x9c, 0x3a, 0xd4, 0x1b, 0x44, 0x2f, 0x0e, 0x36, 
  0x27, 0xb1, 0x47, 0xb8, 0xd3, 0x39, 0xbf, 0xb4, 0xb0, 0x28, 0x7a, 0xb8, 
  0xd4, 0xb4, 0xd5, 0xba, 0xea, 0x33, 0x6d, 0x38, 0x02, 0xb5, 0xc6, 0xba, 
  0x95, 0xac, 0x63, 0x33, 0x78, 0x35, 0x3f, 0xb6, 0x00, 0x38, 0x98, 0xb8, 
  0xcb, 0x36, 0xc0, 0x31, 0x7f, 0x3c, 0x8c, 0xbc, 0x10, 0x38, 0x03, 0xb1, 
  0x32, 0xaf, 0x0f, 0x37, 0xbd, 0xb6, 0x37, 0xb5, 0x37, 0x29, 0x25, 0xad, 
  0x85, 0xac, 0x21, 0xb2, 0x9f, 0x35, 0xe0, 0xb5, 0x2c, 0x38, 0x90, 0xa2, 
  0x84, 0xb7, 0xbf, 0x37, 0x35, 0xb4, 0x2e, 0xaf, 0x31, 0x34, 0xde, 0xb7, 
  0x1d, 0x38, 0xbf, 0x35, 0x44, 0xa2, 0xba, 0x38, 0x31, 0xbb, 0x69, 0xad, 
  0x8e, 0x27, 0x5d, 0xa8, 0x36, 0x36, 0x17, 0x32, 0xaf, 0xb1, 0x0b, 0x37, 
  0x83, 0x33, 0xd0, 0xa5, 0xe4, 0x36, 0xad, 0x37, 0x41, 0x36, 0x32, 0x30, 
  0x3b, 0xad, 0x65, 0xb4, 0x7d, 0x34, 0x74, 0x38, 0x64, 0xb2, 0xec, 0xb2, 
  0x80, 0x3b, 0x8b, 0x2e, 0x6b, 0xb9, 0xa2, 0xb8, 0x85, 0x36, 0xa9, 0x38, 
  0xcd, 0x35, 0x15, 0x37, 0xc9, 0xb5, 0xf1, 0x35, 0x11, 0xb6, 0x02, 0x3a, 
  0xfc, 0xb0, 0x49, 0xb1, 0x2e, 0x36, 0x59, 0xb8, 0xd9, 0x36, 0x03, 0x3a, 
  0x23, 0xb8, 0xf5, 0xb5, 0xd0, 0x27, 0x11, 0x35, 0x15, 0x23, 0xc0, 0x2c, 
  0x84, 0x35, 0x5c, 0xa6, 0x71, 0xb4, 0x30, 0xa8, 0xc8, 0x31, 0x34, 0x92, 
  0x75, 0x2f, 0x1b, 0x2d, 0x3a, 0xb8, 0x22, 0xb8, 0x97, 0xac, 0xc8, 0xb5, 
  0x78, 0xaf, 0x70, 0x2d, 0x1d, 0xb4, 0xdb, 0xb8, 0x07, 0x37, 0xfc, 0x34, 
  0xd5, 0xb0, 0x7a, 0x32, 0xfa, 0x2c, 0xf9, 0x36, 0x74, 0x34, 0xad, 0x37, 
  0x70, 0x3c, 0x37, 0x3a, 0xf7, 0x2f, 0x3b, 0x32, 0x69, 0x33, 0xa4, 0x36, 
  0x31, 0x35, 0xc3, 0x39, 0xbe, 0xb6, 0xe7, 0xb3, 0x94, 0xb6, 0x5d, 0xac, 
  0x3b, 0xb4, 0x77, 0xac, 0xfc, 0xaf, 0x25, 0xbb, 0x67, 0x31, 0x75, 0x31, 
  0x56, 0x32, 0x01, 0xb4, 0x39, 0xb6, 0xc1, 0xbc, 0x8e, 0x36, 0x2c, 0xb6, 
  0x9a, 0xb7, 0x24, 0x3a, 0xfc, 0xb3, 0x53, 0x32, 0x6e, 0xb5, 0x35, 0xac, 
  0x4c, 0x32, 0xbc, 0x30, 0x60, 0xac, 0x55, 0x2d, 0x35, 0xb1, 0xb1, 0xb8, 
  0x87, 0xa9, 0x75, 0x36, 0x96, 0xab, 0x0f, 0xbd, 0x00, 0xb6, 0xcf, 0x37, 
  0x66, 0x30, 0xb4, 0x37, 0x8f, 0xb4, 0x31, 0x38, 0xe4, 0x35, 0x14, 0xb2, 
  0x19, 0x38, 0xa9, 0x35, 0x4a, 0xb9, 0xbc, 0x38, 0x46, 0x2c, 0x94, 0xad, 
  0xa3, 0x34, 0xb8, 0xa6, 0xb2, 0xba, 0x00, 0xb0, 0x37, 0x37, 0xe8, 0x3a, 
  0xc6, 0x30, 0x7d, 0xb2, 0x08, 0xb8, 0x66, 0x2b, 0x4b, 0xb1, 0x73, 0xb7, 
  0x16, 0x36, 0xa3, 0xb0, 0xbf, 0xb5, 0x9e, 0xb6, 0x28, 0xb2, 0x8d, 0xb9, 
  0x9d, 0x33, 0xe6, 0x39, 0x02, 0x36, 0xdf, 0x34, 0x3d, 0x39, 0x16, 0xb6, 
  0xe2, 0xaf, 0xb8, 0xb9, 0xa6, 0x38, 0xa5, 0x33, 0xa7, 0x36, 0x15, 0xba, 
  0x6d, 0xb3, 0x12, 0x35, 0x21, 0xb5, 0xad, 0xba, 0x0d, 0xb6, 0x54, 0xb8, 
  0xc8, 0xab, 0x32, 0x38, 0x7a, 0xb5, 0x2b, 0x38, 0x87, 0xb5, 0xf7, 0x33, 
  0x95, 0xb9, 0x45, 0xa9, 0x11, 0xb8, 0x73, 0xb5, 0xd3, 0x31, 0x21, 0x31, 
  0x47, 0x28, 0xf0, 0x32, 0x1b, 0x26, 0x36, 0x3b, 0x9a, 0xac, 0x02, 0xae, 
  0xe9, 0x27, 0x40, 0xb6, 0xeb, 0x2d, 0x49, 0x2f, 0x8c, 0x36, 0x61, 0xba, 
  0x7e, 0x32, 0x91, 0x2f, 0x44, 0x32, 0xab, 0xb8, 0x92, 0xb0, 0x72, 0x36, 
  0x28, 0xb2, 0xa3, 0x21, 0x11, 0x34, 0xdd, 0x2b, 0xe4, 0x37, 0xf6, 0x31, 
  0xe0, 0x37, 0x44, 0x37, 0xa5, 0x2e, 0x2e, 0x38, 0x84, 0xb8, 0xe1, 0x38, 
  0xed, 0xb8, 0xb3, 0x35, 0xae, 0x2b, 0x83, 0x3b, 0xe7, 0xa9, 0x7c, 0xa7, 
  0xe6, 0x37, 0x9b, 0x38, 0x41, 0xb8, 0x61, 0x18, 0x52, 0x37, 0x1b, 0x24, 
  0xdd, 0x32, 0x7d, 0x2d, 0x85, 0xae, 0x37, 0x38, 0x0b, 0xaf, 0x5b, 0x36, 
  0x72, 0x36, 0xdf, 0x39, 0x2e, 0x34, 0x33, 0xba, 0xfa, 0xb4, 0xa9, 0xb6, 
  0x3d, 0xb7, 0x58, 0xb1, 0xf7, 0x37, 0x4b, 0x3a, 0x01, 0xb3, 0x13, 0xb3, 
  0x0a, 0x39, 0x60, 0x3c, 0x3c, 0xb8, 0x94, 0x35, 0x01, 0xb5, 0xaf, 0xbc, 
  0x91, 0xb1, 0x7a, 0x39, 0x56, 0xb0, 0xa7, 0xb6, 0x20, 0x36, 0xea, 0x30, 
  0x6c, 0xb5, 0x24, 0x30, 0x6f, 0x39, 0x08, 0xb9, 0x4a, 0xb4, 0x5c, 0x20, 
  0x7c, 0xb7, 0x7e, 0xb6, 0xbf, 0x35, 0xf6, 0xaf, 0x77, 0x2d, 0xcc, 0x38, 
  0xfe, 0x37, 0x8d, 0x38, 0x85, 0x39, 0x7b, 0xa7, 0xc5, 0xb5, 0xfd, 0xad, 
  0x02, 0xb4, 0xf4, 0xb6, 0xda, 0x21, 0x15, 0xa6, 0x0c, 0xb4, 0x93, 0xb8, 
  0x0d, 0x33, 0xf9, 0x38, 0xb7, 0x36, 0x79, 0xb9, 0x9c, 0xaa, 0x80, 0xb3, 
  0xec, 0x25, 0x9f, 0xb1, 0x12, 0xb9, 0x17, 0x1c, 0xa3, 0xb4, 0x01, 0x36, 
  0xb3, 0x3b, 0xab, 0x35, 0x37, 0x38, 0x5d, 0x30, 0x9e, 0x39, 0x2c, 0xbb, 
  0x9e, 0x36, 0x0c, 0xb4, 0x63, 0xad, 0x60, 0xb8, 0x20, 0x39, 0x21, 0xb9, 
  0xb8, 0xb8, 0xe0, 0x34, 0x00, 0x38, 0x42, 0x38, 0xef, 0x34, 0x1b, 0xb2, 
  0x07, 0x35, 0x39, 0xa7, 0x77, 0x35, 0x3f, 0x30, 0x32, 0xad, 0x7b, 0xb7, 
  0x3e, 0xb9, 0x48, 0xa6, 0x21, 0x2d, 0xe3, 0xa8, 0x32, 0xb7, 0x77, 0xb7, 
  0x8e, 0xb4, 0x80, 0x31, 0xc1, 0x38, 0x58, 0x2b, 0x4f, 0xb2, 0x42, 0x31, 
  0xa6, 0xb6, 0x07, 0xb6, 0xf0, 0x3a, 0xee, 0x35, 0xb8, 0xba, 0x3e, 0x2c, 
  0x0a, 0xb4, 0x92, 0x29, 0xa4, 0x34, 0x39, 0xac, 0x79, 0x39, 0x82, 0xb1, 
  0x48, 0xba, 0x7d, 0xba, 0x7c, 0x39, 0x2e, 0x32, 0xa3, 0x2e, 0xe5, 0x32, 
  0x77, 0x39, 0x16, 0x33, 0xb8, 0x36, 0x9f, 0xb5, 0xd0, 0x33, 0x1a, 0xb7, 
  0x27, 0x39, 0x69, 0x33, 0x37, 0x36, 0x25, 0x29, 0x24, 0x99, 0xf4, 0xb2, 
  0xf3, 0xb5, 0x04, 0x36, 0x78, 0xac, 0xa2, 0x34, 0xc3, 0xb2, 0xd9, 0x32, 
  0x46, 0x36, 0xee, 0x37, 0x5b, 0x2d, 0x25, 0xb5, 0x0e, 0x38, 0xb1, 0xb8, 
  0x03, 0x33, 0x52, 0xb3, 0x2a, 0x39, 0xf1, 0x39, 0xda, 0xaf, 0x93, 0x34, 
  0x4e, 0xb0, 0x0b, 0xac, 0xe2, 0xb6, 0x09, 0x36, 0x87, 0xae, 0x10, 0xbb, 
  0x51, 0xb2, 0x17, 0x3c, 0xd0, 0xb0, 0xf2, 0xb5, 0x2c, 0xb1, 0x0a, 0x20, 
  0xa1, 0x35, 0xcb, 0x35, 0x22, 0x2f, 0xb3, 0xb6, 0xf7, 0xb6, 0x57, 0xbc, 
  0x44, 0xa9, 0xd3, 0xac, 0x69, 0xb3, 0x3c, 0xb9, 0xfa, 0xb1, 0xe3, 0x36, 
  0x22, 0x3a, 0x72, 0x35, 0x25, 0x34, 0x49, 0xb8, 0x10, 0x39, 0x4d, 0xb8, 
  0xe0, 0x34, 0x26, 0x39, 0x32, 0xb7, 0x29, 0x2e, 0xf7, 0xb8, 0x55, 0x34, 
  0x71, 0x2a, 0x31, 0x33, 0x23, 0xb1, 0xc4, 0xb6, 0x75, 0x2c, 0x6c, 0xae, 
  0xc1, 0x39, 0x07, 0xb0, 0x2c, 0x39, 0x02, 0xb6, 0xac, 0x29, 0xb8, 0xb3, 
  0x91, 0x39, 0xe3, 0x32, 0x8f, 0xb0, 0x02, 0x38, 0xac, 0xb4, 0x48, 0x1f, 
  0xfb, 0x2b, 0x93, 0xb1, 0x60, 0xb3, 0x15, 0xb9, 0x57, 0x2a, 0x36, 0x36, 
  0x67, 0x38, 0xb2, 0x39, 0x97, 0x32, 0x71, 0x30, 0x7c, 0x34, 0x6b, 0x2e, 
  0xee, 0xaa, 0xb2, 0xad, 0x8b, 0xb0, 0x8d, 0xad, 0x8d, 0xb8, 0xd5, 0xb8, 
  0xe3, 0xb2, 0xb1, 0xb7, 0x3e, 0x33, 0x54, 0xb8, 0x5b, 0xb6, 0x29, 0x32, 
  0xbe, 0xb9, 0x18, 0xb5, 0x6b, 0xb8, 0xaa, 0xb4, 0x6a, 0x36, 0x97, 0xb0, 
  0xd0, 0xb9, 0x7d, 0x36, 0xa3, 0x2a, 0xdb, 0x3b, 0x27, 0x38, 0x62, 0x25, 
  0x81, 0x2c, 0x86, 0x30, 0xdd, 0xb6, 0xf4, 0xb7, 0xf6, 0xb8, 0x27, 0x39, 
  0x1d, 0xb8, 0x2c, 0xb8, 0x20, 0xb1, 0x02, 0xac, 0x77, 0x30, 0xe7, 0x38, 
  0x5c, 0x31, 0x77, 0xb3, 0x94, 0xb8, 0xcd, 0x2c, 0x34, 0xb8, 0x2d, 0x39, 
  0x7c, 0x32, 0xe7, 0x36, 0xf1, 0xb7, 0xae, 0x3c, 0x7d, 0xb8, 0xc8, 0x38, 
  0xf3, 0x37, 0xec, 0xbb, 0xb4, 0xb2, 0x67, 0x25, 0xbd, 0x2c, 0x67, 0x36, 
  0x59, 0x33, 0xfd, 0x34, 0xdd, 0xb3, 0xba, 0x33, 0xc6, 0x36, 0x29, 0x37, 
  0x66, 0x37, 0x35, 0xb6, 0x62, 0x38, 0xab, 0xb8, 0x12, 0xb9, 0x56, 0xb0, 
  0xfe, 0x32, 0x58, 0x3b, 0x35, 0x30, 0x09, 0x35, 0x2e, 0x34, 0xe3, 0xb4, 
  0x83, 0x37, 0x4b, 0xb1, 0x40, 0xb8, 0xaa, 0x36, 0xb4, 0xb4, 0x24, 0xa8, 
  0x70, 0xad, 0x79, 0x35, 0x88, 0xb4, 0x7d, 0x38, 0x2d, 0x2a, 0xa4, 0xb9, 
  0x4c, 0x3a, 0x61, 0x9e, 0x86, 0x36, 0xb6, 0xb5, 0x05, 0x28, 0x92, 0x2d, 
  0xda, 0x2b, 0xda, 0x34, 0x5d, 0x31, 0x96, 0xb8, 0x81, 0x1d, 0xe0, 0xbb, 
  0x28, 0x38, 0x01, 0x38, 0x50, 0xb8, 0x28, 0x30, 0x1e, 0x2f, 0x5b, 0xb9, 
  0xdf, 0xb7, 0x24, 0x39, 0x67, 0x37, 0xb8, 0x39, 0x12, 0xba, 0xc9, 0x39, 
  0x88, 0x32, 0x4b, 0xb5, 0x76, 0xb6, 0x9e, 0xb4, 0xc9, 0x29, 0x0f, 0x34, 
  0xb5, 0xb6, 0x29, 0xbc, 0x8d, 0x35, 0x28, 0xb8, 0x36, 0x33, 0x68, 0x34, 
  0x4e, 0xb4, 0xb0, 0x36, 0xd9, 0xac, 0xda, 0x2c, 0xc3, 0xb5, 0xce, 0xa8, 
  0x01, 0xb4, 0x12, 0x2e, 0xc6, 0xb4, 0x1f, 0xba, 0x6c, 0xbb, 0x7f, 0xa9, 
  0x92, 0xae, 0x10, 0x33, 0x49, 0x36, 0x42, 0xb6, 0x8f, 0x34, 0xcd, 0x2a, 
  0x1c, 0xbb, 0x54, 0xb1, 0x1c, 0xb5, 0x95, 0x39, 0xa7, 0x37, 0x8f, 0xb5, 
  0xba, 0xb0, 0x0b, 0x37, 0xc0, 0x35, 0x4b, 0x30, 0x6f, 0x25, 0xc1, 0xb9, 
  0x91, 0x38, 0x0d, 0xaa, 0x0b, 0xbc, 0xf6, 0xb5, 0x0e, 0xb5, 0x88, 0xb7, 
  0xd1, 0xb8, 0xe3, 0xa9, 0x4d, 0x2f, 0x3b, 0xba, 0xed, 0xb7, 0x89, 0x34, 
  0xc8, 0xb6, 0x9b, 0xa1, 0xb1, 0xb4, 0xcd, 0xb5, 0x0b, 0x31, 0xd9, 0x38, 
  0x4b, 0x38, 0x13, 0x38, 0x10, 0xb4, 0x10, 0xb8, 0xf7, 0x21, 0xa3, 0xba, 
  0xd4, 0xad, 0xeb, 0xae, 0xa5, 0x37, 0x0d, 0x3a, 0x10, 0xad, 0x12, 0xac, 
  0xc5, 0x35, 0x8e, 0xb5, 0x5a, 0x39, 0xaa, 0x37, 0xc6, 0x2c, 0x14, 0xb4, 
  0x3e, 0x3c, 0x01, 0x39, 0x2a, 0x38, 0x79, 0x21, 0x2c, 0x35, 0xa0, 0x3d, 
  0x2b, 0xb5, 0x10, 0xb9, 0xb0, 0x2f, 0xab, 0x39, 0x63, 0x28, 0x60, 0xb6, 
  0x7a, 0xb5, 0x1f, 0xaf, 0x26, 0x38, 0xe5, 0x35, 0x34, 0x37, 0x9d, 0xb1, 
  0x13, 0x31, 0x68, 0x35, 0x00, 0x36, 0x32, 0x36, 0x9e, 0x37, 0x00, 0x2b, 
  0x52, 0xb6, 0xd5, 0xb2, 0xa7, 0x38, 0xb7, 0xaf, 0x68, 0x38, 0x0f, 0xb8, 
  0xc1, 0x33, 0x9e, 0xa4, 0x30, 0xac, 0xa0, 0x2f, 0x0c, 0xb6, 0x03, 0xb9, 
  0xab, 0x36, 0x06, 0xad, 0x1d, 0x38, 0xbc, 0xb9, 0x23, 0xb3, 0x8f, 0x35, 
  0xdd, 0xb7, 0x39, 0x2d, 0x6d, 0xad, 0x4d, 0xb9, 0xc2, 0x2d, 0xb4, 0xb4, 
  0xbf, 0x39, 0x37, 0xb6, 0x8b, 0x33, 0xd5, 0x37, 0xa3, 0xac, 0x29, 0xb1, 
  0x7a, 0xb5, 0x5a, 0xb7, 0x70, 0xb8, 0x7c, 0x34, 0x0d, 0xb8, 0x65, 0x36, 
  0xfa, 0x35, 0x68, 0x35, 0x1b, 0x35, 0x3b, 0xb8, 0xb1, 0x2f, 0xc0, 0x38, 
  0xc2, 0xb1, 0xb9, 0xa7, 0x69, 0xb3, 0x0d, 0x38, 0x91, 0xb7, 0x64, 0xb8, 
  0x1d, 0x29, 0x26, 0x28, 0x4c, 0x34, 0x36, 0xae, 0x55, 0xac, 0xfd, 0xaf, 
  0x10, 0xb5, 0x8b, 0xb5, 0x2e, 0x38, 0x2b, 0x30, 0x81, 0x38, 0x87, 0x32, 
  0xaa, 0x37, 0x63, 0x38, 0x98, 0x39, 0xd5, 0xb5, 0xc8, 0x24, 0x95, 0x2f, 
  0xe8, 0xa9, 0xbc, 0xa4, 0x7d, 0x36, 0xe0, 0x2c, 0xda, 0x35, 0xd3, 0xb8, 
  0x4e, 0x31, 0x0a, 0xb8, 0x9d, 0xb1, 0xcb, 0x31, 0x10, 0x36, 0xe2, 0xaf, 
  0xee, 0xb5, 0xdc, 0xb6, 0x77, 0x37, 0xe4, 0xac, 0xd9, 0xad, 0xe0, 0x37, 
  0x01, 0x36, 0x2a, 0xb3, 0xd8, 0xb0, 0x07, 0x38, 0x82, 0xa9, 0xb5, 0xb2, 
  0xb8, 0xaa, 0xae, 0x39, 0x15, 0xa2, 0x95, 0xb0, 0x56, 0x35, 0x70, 0x31, 
  0xf2, 0x35, 0x72, 0xb9, 0xdd, 0xb3, 0xa8, 0x32, 0xf3, 0x2b, 0x04, 0x31, 
  0xf0, 0x35, 0x3b, 0xb7, 0xc0, 0x3a, 0xb2, 0xb1, 0xa2, 0x33, 0x43, 0xb5, 
  0xcb, 0xb5, 0x3f, 0x32, 0xd6, 0xad, 0xb3, 0x39, 0x2e, 0x2c, 0xe7, 0x29, 
  0x11, 0x33, 0x74, 0xb0, 0x39, 0x34, 0x4e, 0x20, 0xf7, 0xb4, 0x0a, 0x37, 
  0xd6, 0x32, 0xfc, 0x33, 0x6f, 0xb5, 0x56, 0x37, 0x26, 0xb1, 0x39, 0xb1, 
  0x1d, 0x36, 0x53, 0xb7, 0xd4, 0xb5, 0xf8, 0xb8, 0xd0, 0x2e, 0xb5, 0xb2, 
  0x8d, 0xb9, 0x1f, 0xb4, 0x14, 0x31, 0x92, 0x2c, 0x3b, 0x3b, 0x65, 0xb6, 
  0xf3, 0xad, 0x4e, 0x39, 0xf2, 0x36, 0xcd, 0x39, 0x83, 0xb7, 0xe4, 0x29, 
  0xd7, 0xae, 0x86, 0x34, 0x37, 0x33, 0xca, 0xb3, 0xbf, 0x37, 0xf0, 0x28, 
  0x31, 0x16, 0xc6, 0x3a, 0xd5, 0xbb, 0xa5, 0x39, 0xe2, 0xbc, 0xe5, 0xb6, 
  0xe8, 0xb7, 0x24, 0xb8, 0x16, 0x32, 0x98, 0xb9, 0x4e, 0xb2, 0x76, 0x3b, 
  0x85, 0xb1, 0x5a, 0xaf, 0x70, 0x32, 0xfd, 0xb7, 0xe3, 0x37, 0x84, 0x2d, 
  0x17, 0x38, 0x55, 0x34, 0x38, 0xb2, 0x2f, 0x37, 0x5b, 0xb5, 0xf0, 0xb5, 
  0x48, 0x23, 0x5b, 0x3a, 0x45, 0x38, 0x82, 0xb8, 0x47, 0xb9, 0x74, 0x30, 
  0x48, 0x31, 0x02, 0x28, 0xba, 0x34, 0x08, 0x37, 0x6d, 0xb0, 0xd5, 0xb4, 
  0xef, 0x36, 0x1b, 0x34, 0x86, 0x35, 0x47, 0xb5, 0x32, 0xb8, 0xaa, 0xb1, 
  0xad, 0x31, 0xff, 0xa8, 0xf4, 0x36, 0x36, 0xb9, 0xb5, 0xb8, 0xba, 0xb8, 
  0xaf, 0x20, 0x2c, 0xb4, 0xb3, 0xb9, 0x90, 0x3a, 0x1b, 0x35, 0x52, 0x37, 
  0xcc, 0x34, 0xdf, 0x36, 0x51, 0xb7, 0x0d, 0x2f, 0xce, 0xb5, 0x67, 0x32, 
  0xbc, 0xb6, 0x0c, 0x21, 0x31, 0x35, 0x26, 0x36, 0xcd, 0x34, 0xb7, 0x31, 
  0x76, 0x32, 0x91, 0xb8, 0x1f, 0x31, 0x1c, 0xaa, 0xe6, 0x36, 0x09, 0xb8, 
  0xd5, 0xb4, 0xb3, 0xba, 0xf2, 0x34, 0xdf, 0xb9, 0x3a, 0xaf, 0x00, 0x39, 
  0x42, 0xad, 0xe2, 0x39, 0x1d, 0xab, 0x46, 0x36, 0xfe, 0xb9, 0x5f, 0xb4, 
  0x37, 0xad, 0x5d, 0x28, 0xf3, 0x35, 0xdc, 0xbb, 0xe3, 0xb8, 0xc0, 0xb4, 
  0x78, 0xaf, 0xaa, 0xaa, 0x37, 0x36, 0x96, 0xb9, 0x54, 0x34, 0xdb, 0x38, 
  0xb2, 0xb8, 0x40, 0x2f, 0x64, 0x32, 0xb1, 0xb4, 0x33, 0x30, 0xb6, 0xb6, 
  0x73, 0x36, 0xf6, 0x3a, 0x4c, 0x35, 0x7a, 0xb1, 0xfd, 0xb0, 0x2a, 0xb2, 
  0x98, 0xaf, 0x8b, 0x34, 0x89, 0xb4, 0xdb, 0x32, 0x91, 0xab, 0xa2, 0xb5, 
  0x08, 0x37, 0xa1, 0x36, 0x92, 0xb1, 0x5b, 0x35, 0x82, 0xb0, 0xc1, 0xbc, 
  0x7b, 0xb3, 0x5c, 0xba, 0xd8, 0x2e, 0xdc, 0x2b, 0x1d, 0x2f, 0xe9, 0xb8, 
  0x0d, 0xb9, 0xf5, 0x3a, 0x2d, 0xb9, 0xdf, 0x37, 0x26, 0xb7, 0x92, 0xba, 
  0x80, 0xba, 0x5c, 0xb8, 0x49, 0x37, 0x9a, 0x3a, 0xf1, 0x36, 0x6e, 0x25, 
  0x53, 0xb8, 0x60, 0xb4, 0x31, 0xb8, 0x45, 0xb4, 0x55, 0xac, 0x53, 0xb6, 
  0x8e, 0x32, 0x10, 0xa8, 0xf2, 0xb8, 0xb9, 0xb8, 0x60, 0xaf, 0xc2, 0x2b, 
  0x5c, 0xaf, 0x5a, 0x36, 0xd6, 0x30, 0x7e, 0x34, 0xea, 0x36, 0x14, 0xb6, 
  0x4a, 0x28, 0x07, 0xb0, 0x4a, 0xb4, 0xe7, 0xb0, 0x5e, 0x38, 0x0f, 0x28, 
  0xed, 0xb2, 0x34, 0xb3, 0x28, 0xb9, 0x8b, 0xb4, 0x77, 0x35, 0x88, 0x34, 
  0x13, 0x38, 0x95, 0xb0, 0xdc, 0x30, 0x02, 0x35, 0x1c, 0x31, 0x7f, 0xbb, 
  0x2f, 0xb5, 0x05, 0xb5, 0xba, 0xb0, 0x62, 0xb6, 0x9e, 0x39, 0x2c, 0xb9, 
  0x58, 0xae, 0x9b, 0xb0, 0x57, 0x37, 0xd0, 0x3a, 0xf1, 0xb5, 0x19, 0x2f, 
  0x51, 0x32, 0x12, 0xab, 0x1a, 0x33, 0xb8, 0x33, 0x86, 0x2e, 0x66, 0x32, 
  0x28, 0x37, 0x1f, 0x3a, 0x5d, 0x34, 0x9b, 0xb2, 0x23, 0x34, 0x57, 0xbc, 
  0x1f, 0x34, 0xfb, 0xb8, 0x8b, 0xb9, 0x79, 0x32, 0x7b, 0x25, 0x19, 0xa9, 
  0x5a, 0xb4, 0x87, 0xab, 0x70, 0x0e, 0xd7, 0xb6, 0x13, 0x2c, 0x22, 0xb7, 
  0x52, 0x35, 0xa6, 0xbb, 0x86, 0xb8, 0xac, 0x33, 0x61, 0xb6, 0xda, 0x3a, 
  0x9b, 0xac, 0x12, 0x35, 0x81, 0xb2, 0xef, 0xb5, 0xe8, 0xae, 0xf2, 0x39, 
  0xfd, 0x15, 0xe4, 0xae, 0x74, 0xb3, 0x11, 0xb5, 0x10, 0xb9, 0xd0, 0x2d, 
  0xdb, 0x33, 0x3d, 0x2b, 0x91, 0x35, 0x31, 0x3b, 0x69, 0x39, 0xf5, 0xb5, 
  0x5a, 0xb6, 0x60, 0xb7, 0xd0, 0xaf, 0x38, 0x31, 0x5b, 0x38, 0x55, 0x32, 
  0x50, 0xa5, 0x46, 0xb3, 0x95, 0x38, 0xb1, 0x33, 0xfc, 0x27, 0x93, 0xba, 
  0x9d, 0x2a, 0x82, 0x39, 0xc4, 0x2e, 0xb2, 0xa8, 0x0f, 0xb1, 0x50, 0x2d, 
  0x96, 0xb7, 0x62, 0x34, 0x89, 0x37, 0x72, 0x39, 0x94, 0x34, 0x1c, 0xb9, 
  0x9e, 0xb4, 0x85, 0x37, 0x29, 0xb8, 0x49, 0xb8, 0x52, 0x31, 0xa2, 0xb6, 
  0xc4, 0xb2, 0x40, 0x38, 0xbd, 0xac, 0x88, 0xb5, 0x41, 0xb6, 0xbf, 0x32, 
  0x4b, 0x34, 0x1d, 0x36, 0xfa, 0xab, 0x0e, 0xb8, 0x2e, 0xb6, 0xc4, 0x2e, 
  0x76, 0x36, 0x26, 0xb7, 0x04, 0xac, 0x3c, 0xaa, 0xf1, 0x2e, 0x61, 0x30, 
  0x7c, 0x39, 0x73, 0x38, 0x44, 0x2a, 0xce, 0x35, 0xa7, 0x34, 0x8f, 0x36, 
  0xd6, 0xb8, 0xf6, 0xb8, 0xa0, 0x33, 0x97, 0xa8, 0xec, 0x2f, 0x98, 0x38, 
  0x7e, 0x37, 0x2e, 0x38, 0x4c, 0x3a, 0xf8, 0x33, 0xb5, 0xb9, 0x1c, 0xb5, 
  0x88, 0xb4, 0xbc, 0x38, 0xde, 0x2f, 0x01, 0x34, 0x1f, 0x3c, 0x18, 0xb4, 
  0x5d, 0xb9, 0x6b, 0xb4, 0x2d, 0xb5, 0xa8, 0x2d, 0xc2, 0x3a, 0x53, 0x39, 
  0x26, 0x17, 0x9c, 0x36, 0x75, 0x30, 0x5b, 0xb0, 0x83, 0xa2, 0x2d, 0x2c, 
  0x8c, 0x35, 0xbc, 0xb8, 0x7b, 0x2d, 0x8f, 0x36, 0x44, 0x35, 0xd9, 0x37, 
  0xbb, 0xb8, 0x3b, 0xad, 0xf0, 0xb6, 0x1d, 0x37, 0x11, 0xa7, 0xc5, 0xb9, 
  0x47, 0x34, 0xf2, 0x35, 0xb0, 0x2e, 0x7e, 0xb6, 0xfe, 0xb4, 0xc7, 0xb4, 
  0xb3, 0xb1, 0x40, 0xb0, 0x15, 0xb6, 0xb8, 0xb9, 0x98, 0x2d, 0xbe, 0x35, 
  0xd8, 0xb5, 0x77, 0xb4, 0x4b, 0xb1, 0x56, 0xb2, 0x1f, 0xaf, 0xfc, 0x34, 
  0x68, 0x37, 0x56, 0x35, 0x2b, 0xa3, 0x25, 0xba, 0xe0, 0xb4, 0x52, 0xb6, 
  0x31, 0x35, 0xb9, 0x1f, 0x62, 0x35, 0xa0, 0xb6, 0xe9, 0x36, 0xa3, 0x39, 
  0x11, 0xb8, 0x38, 0x36, 0x38, 0xb2, 0x19, 0x39, 0xf2, 0xb8, 0x0f, 0x36, 
  0x77, 0x30, 0xcf, 0xb6, 0xe0, 0xb4, 0x01, 0xb5, 0x9d, 0x38, 0xe2, 0xb3, 
  0xd0, 0x34, 0x83, 0xb6, 0xcd, 0xb7, 0x33, 0xbb, 0x93, 0xb0, 0x26, 0xa0, 
  0x5e, 0xb4, 0x35, 0xae, 0xaa, 0x38, 0xc7, 0x32, 0x76, 0x31, 0x13, 0x38, 
  0x48, 0x3a, 0x0c, 0x38, 0xc5, 0xb9, 0x23, 0x39, 0x6d, 0x3c, 0xd4, 0x32, 
  0x15, 0xb7, 0x41, 0xad, 0x7c, 0x31, 0xee, 0xb6, 0x61, 0x37, 0x9c, 0xb5, 
  0x4d, 0x35, 0x96, 0x36, 0x57, 0x36, 0xf5, 0x38, 0x50, 0x33, 0x8b, 0x38, 
  0xfc, 0xb4, 0x04, 0x3c, 0x57, 0x30, 0x1d, 0xb3, 0x41, 0xb3, 0x02, 0x37, 
  0x61, 0xb5, 0xa5, 0xb9, 0xc9, 0xb4, 0xcb, 0x30, 0xca, 0xa0, 0x01, 0xb6, 
  0xa6, 0x25, 0x0f, 0x2a, 0x9e, 0x30, 0xdc, 0x31, 0x41, 0x39, 0x53, 0xb2, 
  0xeb, 0xb2, 0xe2, 0x35, 0xb3, 0xb1, 0x0e, 0x38, 0xa1, 0xb7, 0x9b, 0xb3, 
  0x35, 0x38, 0x1f, 0xb8, 0x95, 0x32, 0xcc, 0x38, 0x7e, 0xb8, 0x7d, 0xb4, 
  0x12, 0x3d, 0x5b, 0x34, 0x3e, 0x38, 0x0f, 0xb7, 0xea, 0x30, 0x57, 0xb6, 
  0xce, 0x33, 0xaf, 0x39, 0x49, 0xb8, 0xba, 0x2c, 0x53, 0xb9, 0x0b, 0xb5, 
  0x03, 0xb4, 0x15, 0x2f, 0xee, 0xb0, 0xb6, 0xbb, 0x79, 0x33, 0x4a, 0xb9, 
  0x44, 0x35, 0x93, 0xb7, 0x10, 0x31, 0x08, 0xb7, 0x4e, 0xb1, 0xfc, 0x35, 
  0xca, 0xb7, 0x62, 0xb4, 0x46, 0xb2, 0x60, 0xb9, 0x49, 0x33, 0x78, 0xb5, 
  0x0c, 0x33, 0x72, 0x30, 0xc9, 0xb6, 0x53, 0x38, 0x49, 0x34, 0x7e, 0x3b, 
  0xa1, 0xb1, 0x33, 0x2c, 0xbe, 0xad, 0xf4, 0x2e, 0x72, 0x36, 0x59, 0xb7, 
  0x4d, 0x2a, 0x3b, 0x34, 0x01, 0xb4, 0xd0, 0x36, 0x5d, 0x35, 0x28, 0x39, 
  0x45, 0x3a, 0xe2, 0xa0, 0x45, 0xb6, 0x44, 0x3b, 0xf0, 0x2c, 0x05, 0x38, 
  0x01, 0x2f, 0xf8, 0xb9, 0xb9, 0x2b, 0x6a, 0xb2, 0xb1, 0xb4, 0xd7, 0x38, 
  0xd6, 0x34, 0x7c, 0x34, 0x54, 0xb1, 0x3c, 0x36, 0xab, 0xb2, 0x6d, 0xb6, 
  0x07, 0x35, 0x1f, 0x2c, 0x03, 0xb6, 0x7c, 0x3a, 0x2e, 0x31, 0xed, 0x38, 
  0xbf, 0x37, 0x1d, 0x3a, 0xc9, 0x31, 0x25, 0x2f, 0x1c, 0xb2, 0x8a, 0xb9, 
  0x09, 0xb2, 0xcf, 0xae, 0x36, 0x3c, 0x42, 0x2c, 0x92, 0x38, 0x2b, 0x3c, 
  0x07, 0x3a, 0x3b, 0x31, 0xc3, 0xb4, 0xaf, 0xb8, 0x33, 0xb6, 0x35, 0xb9, 
  0x8c, 0x30, 0x52, 0x3d, 0x3e, 0xb0, 0x60, 0xa4, 0x44, 0x34, 0x18, 0x29, 
  0xdd, 0xb4, 0x48, 0x30, 0x01, 0x37, 0xfb, 0x2f, 0xe5, 0xb2, 0xd7, 0x34, 
  0x23, 0xad, 0xfd, 0xb6, 0xfe, 0xae, 0x0a, 0x39, 0xb5, 0x31, 0x72, 0x1e, 
  0x50, 0x36, 0x43, 0xb1, 0xe5, 0x23, 0x88, 0x35, 0x6c, 0xb0, 0x97, 0xb6, 
  0x9c, 0xb7, 0x11, 0xb5, 0x83, 0xb6, 0x80, 0xb9, 0x6b, 0xb8, 0x68, 0x2b, 
  0xb7, 0x3b, 0x7f, 0xb5, 0x3a, 0x30, 0x65, 0x30, 0x88, 0x32, 0x0f, 0xbc, 
  0x06, 0xad, 0xc9, 0xab, 0x86, 0xb6, 0x54, 0xb4, 0xe2, 0x3a, 0xf7, 0x2a, 
  0xf3, 0x1e, 0x03, 0xb8, 0x01, 0x36, 0x01, 0x28, 0x76, 0xb8, 0xa6, 0xb1, 
  0x08, 0xb9, 0xf4, 0x2f, 0x9d, 0x34, 0xc6, 0x35, 0xa0, 0xae, 0xa5, 0xb9, 
  0x9b, 0x31, 0xc7, 0x38, 0x6f, 0xb3, 0x54, 0xb5, 0x31, 0x33, 0x28, 0xac, 
  0xdc, 0x33, 0x12, 0xb6, 0x18, 0xb8, 0x40, 0x32, 0xa7, 0x2c, 0xd9, 0x2b, 
  0x8f, 0xb1, 0xcd, 0xb2, 0x71, 0x34, 0xe6, 0xb4, 0xd7, 0x33, 0xc1, 0xb4, 
  0xbb, 0xbd, 0xa1, 0xb1, 0x9b, 0xb6, 0xe9, 0x27, 0x0e, 0xa8, 0x24, 0x24, 
  0x46, 0xb5, 0xe5, 0x38, 0xad, 0xaa, 0xd1, 0xad, 0xd0, 0x32, 0xae, 0xb8, 
  0xad, 0x35, 0xd7, 0x33, 0x2e, 0xaf, 0x3b, 0xb8, 0x2c, 0xb6, 0x4f, 0xb3, 
  0xa3, 0x35, 0x1b, 0xb3, 0x4f, 0xb5, 0xed, 0xb4, 0x60, 0xb8, 0x7d, 0xb9, 
  0x7b, 0xb8, 0x4a, 0x34, 0x89, 0xb2, 0x9d, 0x35, 0x82, 0xae, 0xc7, 0xaf, 
  0x33, 0x35, 0x8a, 0x35, 0x1d, 0xb9, 0xd5, 0xb7, 0xa9, 0xb6, 0xcf, 0xb5, 
  0x79, 0xb6, 0x19, 0xbc, 0x74, 0xb6, 0x4a, 0x35, 0x9e, 0xa9, 0x3b, 0x35, 
  0x0f, 0x9b, 0x99, 0xb9, 0x50, 0x38, 0xd6, 0xb2, 0xf2, 0x35, 0x95, 0xb5, 
  0x0e, 0xa9, 0x15, 0xb7, 0x36, 0xb9, 0x1c, 0x98, 0x40, 0x34, 0x6a, 0xb4, 
  0x19, 0x34, 0x37, 0xb0, 0x64, 0xb7, 0x27, 0xb9, 0x2b, 0x23, 0x77, 0xb8, 
  0xb0, 0xb0, 0x00, 0xb3, 0x3e, 0xb8, 0x37, 0xb7, 0xfc, 0xb7, 0x62, 0x3b, 
  0xc4, 0x1c, 0xc1, 0x34, 0x39, 0x31, 0x87, 0x36, 0x57, 0x9c, 0x1c, 0xb5, 
  0x34, 0xb5, 0xfb, 0x24, 0xbe, 0xb3, 0x3a, 0xb4, 0x5b, 0xb4, 0x5d, 0xb2, 
  0x9a, 0xab, 0xfe, 0xb4, 0xe2, 0xb8, 0xc7, 0xb0, 0xbb, 0xaf, 0x8b, 0xb8, 
  0xbf, 0xae, 0x48, 0xb4, 0x17, 0xb5, 0x95, 0x30, 0xd6, 0xb7, 0x11, 0xb5, 
  0xd3, 0xad, 0x2a, 0xb6, 0x73, 0xb7, 0xd0, 0x33, 0x22, 0xbc, 0x7c, 0xb2, 
  0xd3, 0x38, 0xb5, 0xba, 0x6d, 0x38, 0xcb, 0xa9, 0x30, 0x30, 0x7a, 0x35, 
  0xb6, 0x37, 0x44, 0x32, 0xf3, 0xb9, 0xf4, 0x2e, 0x3a, 0xa7, 0x90, 0xad, 
  0x1f, 0x2c, 0x21, 0xa5, 0x40, 0xb9, 0xc6, 0xb6, 0xef, 0xa1, 0x6a, 0x35, 
  0xf8, 0xb7, 0xf4, 0xab, 0xb3, 0xb8, 0x94, 0x35, 0x84, 0xb5, 0xb5, 0xb6, 
  0x07, 0x32, 0xb2, 0x33, 0x96, 0xb6, 0x55, 0x30, 0xa7, 0xb8, 0x97, 0x33, 
  0xec, 0x99, 0x5e, 0xb5, 0x12, 0x30, 0x59, 0x1d, 0x0d, 0x37, 0x80, 0x2b, 
  0x53, 0x28, 0x3c, 0x3c, 0x76, 0xb8, 0x92, 0x35, 0x40, 0x30, 0x43, 0x39, 
  0x4e, 0x34, 0x8c, 0xb6, 0x09, 0x34, 0x7f, 0xa7, 0x30, 0xb6, 0x12, 0x39, 
  0x1e, 0x3a, 0xbd, 0xae, 0x88, 0x35, 0xa1, 0xb1, 0x15, 0x35, 0xed, 0x36, 
  0xa5, 0xb0, 0x81, 0x35, 0xb3, 0x37, 0x83, 0xb8, 0x35, 0x32, 0xf7, 0x33, 
  0x44, 0x36, 0xab, 0xb6, 0xfa, 0xb6, 0x97, 0x36, 0x95, 0x39, 0x2b, 0x34, 
  0xcf, 0x36, 0xd7, 0x35, 0x51, 0x2b, 0x17, 0x39, 0x49, 0x34, 0x1d, 0xb0, 
  0xfb, 0x27, 0x73, 0x35, 0x1a, 0xb8, 0xea, 0xaa, 0x23, 0xb7, 0xdf, 0x28, 
  0x0f, 0x3a, 0x3b, 0x38, 0xf6, 0xb7, 0xe3, 0xba, 0x46, 0x38, 0x15, 0xb8, 
  0x92, 0x35, 0x0e, 0xb3, 0x18, 0xb5, 0xfb, 0x9c, 0x09, 0x37, 0xb9, 0x3b, 
  0x2e, 0xb1, 0x76, 0xb9, 0xdc, 0xaf, 0xb6, 0xb7, 0x0a, 0x37, 0xca, 0x35, 
  0x19, 0xb9, 0xa1, 0x39, 0x73, 0xb4, 0xc4, 0xb8, 0x21, 0x34, 0xcf, 0xb2, 
  0xa8, 0xb1, 0xa6, 0xb3, 0x31, 0xb0, 0xca, 0xa4, 0xf6, 0x3b, 0x3c, 0x30, 
  0x37, 0xb4, 0x28, 0xb2, 0xee, 0x2b, 0x37, 0xb0, 0x53, 0x35, 0x5a, 0x29, 
  0x35, 0xb9, 0xd3, 0xb4, 0x65, 0x2e, 0x9d, 0x37, 0x21, 0x37, 0xc4, 0xab, 
  0x2b, 0xb1, 0x67, 0x35, 0x2a, 0xb5, 0x79, 0xb7, 0x1f, 0x36, 0x12, 0x2f, 
  0xc3, 0x38, 0xde, 0xb1, 0x8a, 0x35, 0x1a, 0xb5, 0x51, 0x38, 0xbc, 0x38, 
  0x83, 0xb6, 0x04, 0xb4, 0xf1, 0x31, 0x97, 0xb3, 0x0d, 0x3b, 0x3a, 0xad, 
  0x0f, 0xab, 0x2d, 0x2f, 0xc0, 0x2c, 0x49, 0xb9, 0x78, 0x36, 0xc4, 0xb9, 
  0x15, 0x38, 0xfc, 0xa8, 0x40, 0x36, 0x0a, 0xb8, 0xc8, 0xb8, 0x39, 0xae, 
  0x5f, 0x37, 0xfe, 0x2c, 0x90, 0xad, 0x86, 0xb5, 0xe6, 0x2c, 0xb9, 0x2e, 
  0x46, 0x29, 0x22, 0x38, 0x74, 0xab, 0x44, 0xb0, 0x9f, 0x3c, 0xda, 0xb7, 
  0x25, 0xb5, 0xfa, 0x33, 0xd1, 0x34, 0x96, 0xbc, 0x63, 0xb1, 0xda, 0x39, 
  0xe5, 0x30, 0x64, 0xb4, 0xc6, 0xb7, 0x0a, 0x2f, 0x54, 0x32, 0x24, 0x39, 
  0x98, 0xac, 0x91, 0xb6, 0x66, 0x32, 0xaa, 0xa8, 0xa9, 0x2b, 0x94, 0xb3, 
  0x89, 0x2b, 0xb1, 0xbb, 0x0a, 0x35, 0xaa, 0xb5, 0xf2, 0x30, 0x92, 0x35, 
  0xf6, 0x34, 0x2c, 0x25, 0xcc, 0x30, 0xff, 0xb5, 0x6a, 0x2d, 0x40, 0xb7, 
  0x82, 0x34, 0x6a, 0xb5, 0x27, 0xb7, 0xad, 0xb1, 0xcd, 0xb4, 0x23, 0xb2, 
  0x65, 0x38, 0x91, 0x34, 0x03, 0x32, 0x36, 0xb0, 0x25, 0x33, 0x91, 0x36, 
  0xca, 0x38, 0x15, 0x35, 0x8f, 0xb9, 0x8a, 0x3b, 0x2c, 0xb8, 0x09, 0x35, 
  0x87, 0xbc, 0x89, 0xb6, 0x78, 0x2b, 0x35, 0xba, 0x3f, 0x32, 0xc3, 0x20, 
  0xc8, 0xab, 0x8d, 0x39, 0xb3, 0xb6, 0x35, 0xb8, 0xb3, 0x34, 0xee, 0xb5, 
  0x82, 0x35, 0x1d, 0x32, 0xbb, 0x24, 0x06, 0xb3, 0x93, 0xaf, 0x36, 0x35, 
  0x1b, 0xb4, 0x41, 0xaa, 0x4f, 0x2a, 0xf3, 0x38, 0x05, 0xb5, 0x30, 0x35, 
  0x3d, 0xbc, 0x58, 0xb5, 0xb7, 0xb5, 0x2c, 0xb3, 0x64, 0x30, 0xba, 0x2c, 
  0xbe, 0x38, 0x1c, 0x30, 0x6e, 0x37, 0x56, 0x28, 0x9d, 0xb9, 0x41, 0x9c, 
  0xb8, 0xb4, 0x58, 0x36, 0xa5, 0x34, 0x9b, 0x2b, 0xac, 0x35, 0xab, 0x39, 
  0x44, 0x2f, 0xa2, 0x31, 0x9c, 0xb3, 0xa0, 0xb8, 0x78, 0xab, 0xb8, 0x34, 
  0xbc, 0x37, 0x92, 0x34, 0x66, 0x39, 0x0b, 0x29, 0xfb, 0x98, 0x91, 0x2f, 
  0x2c, 0x38, 0xc4, 0xae, 0x4e, 0xb7, 0xcc, 0x25, 0x02, 0xb3, 0xd4, 0xb5, 
  0x45, 0xb2, 0x19, 0x35, 0x2c, 0x30, 0x85, 0x39, 0xd3, 0x30, 0x8e, 0xb1, 
  0xfa, 0x35, 0xa3, 0xb8, 0x4d, 0xb6, 0xeb, 0x3c, 0xfe, 0xb1, 0x88, 0xb1, 
  0x27, 0x2f, 0x47, 0xb6, 0x39, 0xaf, 0x6e, 0x34, 0x01, 0x38, 0x78, 0xb0, 
  0x50, 0xb1, 0x4a, 0xb6, 0xf4, 0x34, 0xec, 0xa8, 0x12, 0x37, 0xd6, 0x3a, 
  0x07, 0x35, 0x45, 0x36, 0xc8, 0x2e, 0xac, 0x38, 0xa6, 0x36, 0x3c, 0x1c, 
  0x96, 0x29, 0x0c, 0xb8, 0x0a, 0xb9, 0x67, 0xb5, 0x7c, 0xb2, 0x4f, 0xb6, 
